unsigned char mask_id_tiny_tflite[] = {
  0x1c, 0x00, 0x00, 0x00, 0x54, 0x46, 0x4c, 0x33, 0x00, 0x00, 0x12, 0x00,
  0x1c, 0x00, 0x04, 0x00, 0x08, 0x00, 0x0c, 0x00, 0x10, 0x00, 0x14, 0x00,
  0x00, 0x00, 0x18, 0x00, 0x12, 0x00, 0x00, 0x00, 0x03, 0x00, 0x00, 0x00,
  0x10, 0x6d, 0x00, 0x00, 0x10, 0x67, 0x00, 0x00, 0xf8, 0x66, 0x00, 0x00,
  0x34, 0x00, 0x00, 0x00, 0x04, 0x00, 0x00, 0x00, 0x01, 0x00, 0x00, 0x00,
  0x04, 0x00, 0x00, 0x00, 0xa0, 0x93, 0xff, 0xff, 0x08, 0x00, 0x00, 0x00,
  0x0d, 0x00, 0x00, 0x00, 0x13, 0x00, 0x00, 0x00, 0x6d, 0x69, 0x6e, 0x5f,
  0x72, 0x75, 0x6e, 0x74, 0x69, 0x6d, 0x65, 0x5f, 0x76, 0x65, 0x72, 0x73,
  0x69, 0x6f, 0x6e, 0x00, 0x0e, 0x00, 0x00, 0x00, 0xb8, 0x66, 0x00, 0x00,
  0x68, 0x66, 0x00, 0x00, 0x50, 0x04, 0x00, 0x00, 0xe0, 0x00, 0x00, 0x00,
  0x90, 0x00, 0x00, 0x00, 0x88, 0x00, 0x00, 0x00, 0x80, 0x00, 0x00, 0x00,
  0x78, 0x00, 0x00, 0x00, 0x70, 0x00, 0x00, 0x00, 0x40, 0x00, 0x00, 0x00,
  0x38, 0x00, 0x00, 0x00, 0x24, 0x00, 0x00, 0x00, 0x1c, 0x00, 0x00, 0x00,
  0x04, 0x00, 0x00, 0x00, 0xd2, 0x99, 0xff, 0xff, 0x04, 0x00, 0x00, 0x00,
  0x06, 0x00, 0x00, 0x00, 0x31, 0x2e, 0x31, 0x34, 0x2e, 0x30, 0x00, 0x00,
  0xa4, 0x93, 0xff, 0xff, 0xea, 0x99, 0xff, 0xff, 0x04, 0x00, 0x00, 0x00,
  0x04, 0x00, 0x00, 0x00, 0x36, 0xce, 0x6c, 0x3f, 0xb8, 0x93, 0xff, 0xff,
  0xfe, 0x99, 0xff, 0xff, 0x04, 0x00, 0x00, 0x00, 0x20, 0x00, 0x00, 0x00,
  0xe7, 0x3b, 0x7a, 0x3c, 0xa5, 0xda, 0x7d, 0xbb, 0x56, 0x07, 0xa1, 0x3d,
  0x48, 0x9f, 0x39, 0x3c, 0xe1, 0x19, 0xee, 0x3c, 0x7a, 0x6f, 0x10, 0xbc,
  0x83, 0x4a, 0x15, 0x3d, 0xcb, 0xc5, 0x50, 0x3c, 0xe8, 0x93, 0xff, 0xff,
  0xec, 0x93, 0xff, 0xff, 0xf0, 0x93, 0xff, 0xff, 0xf4, 0x93, 0xff, 0xff,
  0x3a, 0x9a, 0xff, 0xff, 0x04, 0x00, 0x00, 0x00, 0x40, 0x00, 0x00, 0x00,
  0x8f, 0x21, 0xac, 0xbb, 0x09, 0xc4, 0xc4, 0xbb, 0x7a, 0x2c, 0x2f, 0xbd,
  0xbc, 0xe0, 0x5c, 0x3e, 0x61, 0xf2, 0x0f, 0xbc, 0x19, 0xe2, 0x48, 0x3e,
  0x25, 0xfb, 0xb1, 0xbc, 0xb3, 0x1b, 0xfc, 0xbc, 0xa2, 0xea, 0x5e, 0x3e,
  0x9e, 0xeb, 0xbc, 0x3b, 0xf8, 0xaf, 0x85, 0x3c, 0x6c, 0xb0, 0x4f, 0x3e,
  0xa6, 0x0a, 0xa9, 0xbb, 0xb2, 0x11, 0xfd, 0x3c, 0x5e, 0xf1, 0xee, 0x3b,
  0x3b, 0x76, 0x8d, 0x3b, 0x86, 0x9a, 0xff, 0xff, 0x04, 0x00, 0x00, 0x00,
  0x60, 0x03, 0x00, 0x00, 0xbc, 0xfe, 0x80, 0xbe, 0x37, 0xf4, 0x8e, 0xbd,
  0xd9, 0xb2, 0xc1, 0x3d, 0xf6, 0x19, 0x0c, 0x3e, 0xe3, 0xcc, 0x7b, 0x3e,
  0x1d, 0x6a, 0x15, 0xbe, 0xf7, 0x48, 0xa5, 0xbc, 0x94, 0xd0, 0x63, 0x3e,
  0xe5, 0x27, 0x98, 0x3e, 0x31, 0x90, 0x56, 0xbe, 0x41, 0x8c, 0x44, 0xbe,
  0xb8, 0x02, 0xe0, 0x3d, 0x5d, 0x6f, 0x41, 0x3e, 0x6f, 0x95, 0x95, 0x3d,
  0xfa, 0x23, 0x9d, 0x3e, 0x52, 0xc2, 0x79, 0xbe, 0x89, 0x61, 0x1a, 0xba,
  0x22, 0xa3, 0x67, 0xbc, 0xbf, 0x18, 0x29, 0xbe, 0x33, 0x59, 0x60, 0xbe,
  0xa7, 0x61, 0x35, 0x3e, 0x6c, 0x86, 0x84, 0xbd, 0xf5, 0x6f, 0x36, 0xbd,
  0x60, 0xea, 0x98, 0x3e, 0x49, 0xaa, 0x89, 0xbe, 0xbc, 0x53, 0x42, 0xbd,
  0x3e, 0x85, 0xaa, 0x3d, 0x1e, 0x58, 0x59, 0xbe, 0xf7, 0xc3, 0x84, 0x3e,
  0x57, 0xb4, 0x2e, 0x3e, 0xc0, 0x74, 0x98, 0xbe, 0x97, 0x0e, 0xd1, 0xbb,
  0xa7, 0xcb, 0x80, 0xbe, 0x93, 0x8a, 0xfa, 0xbd, 0x20, 0x48, 0xac, 0x3e,
  0x4b, 0xde, 0x99, 0x3d, 0x15, 0x72, 0x08, 0x3e, 0xa1, 0x52, 0x26, 0x3e,
  0x94, 0xdd, 0x81, 0x3d, 0x33, 0x1c, 0x60, 0x3d, 0xd7, 0x30, 0x78, 0x3e,
  0x6f, 0x10, 0x72, 0xbe, 0x38, 0xc9, 0xf7, 0xbd, 0xc3, 0x44, 0x26, 0xbd,
  0x94, 0xd4, 0x36, 0xbe, 0x62, 0xcd, 0xf4, 0x3c, 0xe0, 0x73, 0x22, 0xbe,
  0x37, 0xc1, 0x09, 0x3e, 0x73, 0x06, 0x11, 0xbe, 0x82, 0x61, 0x84, 0xbd,
  0xdf, 0xdf, 0xc9, 0x3d, 0xd7, 0x32, 0x1a, 0xbd, 0xdc, 0xe8, 0xa1, 0x3e,
  0x21, 0x48, 0x18, 0x3e, 0x5d, 0xe3, 0xe2, 0x3b, 0xcb, 0xb5, 0x9c, 0x3d,
  0x43, 0x0e, 0x1c, 0x3e, 0xd0, 0x42, 0x49, 0xbe, 0x7a, 0x48, 0x9f, 0x3d,
  0x2a, 0x11, 0x9a, 0x3e, 0x7f, 0x8e, 0x9e, 0xbd, 0xb7, 0xb4, 0x6a, 0xbc,
  0x44, 0xe1, 0x78, 0x3e, 0xd5, 0x8c, 0x48, 0xbe, 0x54, 0xd2, 0x3e, 0x3c,
  0x35, 0x42, 0xfd, 0xbd, 0x80, 0x1a, 0xf9, 0xbc, 0xdf, 0xd1, 0x60, 0x3e,
  0xee, 0x4b, 0xc7, 0xbd, 0x94, 0x55, 0x4c, 0xbe, 0x55, 0x1c, 0x34, 0xbe,
  0x6c, 0x20, 0xb9, 0x3d, 0x9f, 0xfb, 0xb3, 0xbd, 0xcc, 0x9e, 0x5e, 0xbe,
  0x09, 0x9a, 0x4a, 0x3e, 0x64, 0x5a, 0x17, 0xbe, 0x00, 0x77, 0x5a, 0x3e,
  0x92, 0xa1, 0xf0, 0x3d, 0xeb, 0xbe, 0x03, 0xbe, 0x69, 0x06, 0xe3, 0xbd,
  0x87, 0x40, 0xb8, 0xbc, 0x95, 0x29, 0x0e, 0xbe, 0x2b, 0x59, 0x5b, 0x3e,
  0x51, 0x14, 0x18, 0xbe, 0x87, 0xb0, 0x1e, 0x3c, 0xa0, 0x2b, 0x61, 0x3e,
  0xd1, 0x8e, 0xb3, 0xbd, 0xce, 0x8a, 0xe2, 0x3d, 0xd3, 0xfd, 0xb5, 0x3d,
  0xdc, 0xf8, 0x6a, 0xbe, 0xe8, 0xa5, 0xac, 0x3d, 0x34, 0xdc, 0xb9, 0x39,
  0x09, 0x8c, 0xb8, 0xbd, 0xd4, 0x7f, 0x12, 0x3d, 0x27, 0x12, 0x97, 0x3d,
  0x26, 0x21, 0x26, 0x3e, 0x4b, 0xd6, 0x61, 0x3e, 0xfe, 0xb0, 0x54, 0xbe,
  0x95, 0x6a, 0xe6, 0x3d, 0xd6, 0x36, 0x16, 0x3d, 0xc4, 0xb7, 0x2d, 0xbe,
  0x79, 0xd7, 0x1b, 0x3e, 0x13, 0xc2, 0xa7, 0x3d, 0x68, 0x35, 0xce, 0xbd,
  0x29, 0x46, 0x59, 0x3d, 0x39, 0xe2, 0xb3, 0x3d, 0x12, 0xe3, 0x01, 0x3e,
  0x60, 0x99, 0x08, 0xbe, 0x72, 0x4c, 0xcb, 0x3d, 0xee, 0x10, 0x04, 0x3e,
  0x8d, 0x68, 0x2b, 0xbe, 0x49, 0xd4, 0x64, 0xbe, 0x45, 0x8a, 0xd1, 0x3e,
  0x84, 0x0c, 0x58, 0xbc, 0xa1, 0x7c, 0xb4, 0xbd, 0xb2, 0xf7, 0xac, 0x3e,
  0xb4, 0xb3, 0x8f, 0x3c, 0x79, 0x45, 0x41, 0xbe, 0x2c, 0x7e, 0x90, 0x3e,
  0xb2, 0x82, 0xc0, 0xbd, 0x47, 0x92, 0x1d, 0xbd, 0xbb, 0x96, 0x83, 0xbc,
  0x25, 0xc9, 0x40, 0xbe, 0x43, 0x17, 0x5d, 0xbe, 0xf6, 0x9a, 0x79, 0x3d,
  0x1a, 0x7d, 0x29, 0xbe, 0x38, 0xf1, 0x02, 0x3e, 0xe6, 0xf4, 0x05, 0xbe,
  0xa3, 0x2b, 0x34, 0xbe, 0x01, 0xba, 0x2e, 0xbd, 0x4e, 0x80, 0x7e, 0x3e,
  0x2a, 0x97, 0x3e, 0x3d, 0xa1, 0x32, 0xf1, 0xbd, 0x2c, 0x55, 0x1d, 0x3e,
  0xe2, 0xb1, 0x72, 0xbd, 0xa7, 0x5c, 0x84, 0xbe, 0xa6, 0xc3, 0x38, 0xbe,
  0x23, 0x8d, 0x82, 0xbe, 0x39, 0x20, 0x3c, 0xbd, 0x37, 0x4c, 0xf7, 0xbe,
  0x04, 0x3e, 0x98, 0xbe, 0x47, 0xad, 0x1a, 0x3d, 0x6b, 0x85, 0x8e, 0xbe,
  0x4c, 0xa8, 0x99, 0xbe, 0x15, 0x4f, 0xe8, 0xbd, 0x5c, 0xe1, 0x29, 0x3c,
  0x0a, 0x85, 0xaa, 0x3e, 0x77, 0x8d, 0x30, 0xbe, 0x8c, 0x39, 0x51, 0xbe,
  0x41, 0x22, 0xe4, 0x3d, 0x29, 0x7c, 0x6b, 0x3e, 0x6b, 0xb0, 0xc5, 0x3d,
  0xaf, 0x6f, 0xc0, 0xbc, 0x50, 0xd1, 0x82, 0x3e, 0x4d, 0x2c, 0xef, 0x3d,
  0x30, 0x94, 0xb6, 0x3d, 0x9f, 0xae, 0x9d, 0x3e, 0xc2, 0x5b, 0x59, 0x3e,
  0x1a, 0x70, 0xc9, 0x3e, 0x60, 0xe9, 0x95, 0x3e, 0xb0, 0x9d, 0x1b, 0xbe,
  0xc2, 0xf9, 0x47, 0x3d, 0x16, 0x87, 0xa2, 0xbe, 0x7d, 0xe3, 0x9f, 0xbe,
  0x5f, 0x9f, 0x6a, 0xbe, 0xd3, 0x87, 0xd3, 0xbc, 0xbb, 0xe8, 0x3e, 0xbe,
  0xab, 0x5b, 0x95, 0xbe, 0xc0, 0x10, 0x4b, 0x3d, 0xe5, 0x6b, 0xd4, 0xbd,
  0xba, 0x07, 0x27, 0x3e, 0xcb, 0x60, 0x3b, 0x3e, 0xdc, 0x52, 0x28, 0x3d,
  0xf2, 0x13, 0x23, 0xbe, 0xcc, 0xe7, 0x3f, 0x3d, 0xb6, 0x5f, 0x6c, 0xbe,
  0xf2, 0xa9, 0x8e, 0x3e, 0xfa, 0x48, 0x35, 0x3e, 0xd5, 0x02, 0x22, 0x3e,
  0xb3, 0x8a, 0x7e, 0x3c, 0x85, 0x5f, 0x96, 0x3d, 0x31, 0xeb, 0x6e, 0x3e,
  0xad, 0x34, 0x7a, 0xbd, 0x52, 0x43, 0x49, 0xbd, 0xcf, 0x8f, 0x3c, 0x3e,
  0x0b, 0xb4, 0x7b, 0x3e, 0xf1, 0xe4, 0x13, 0x3e, 0x5c, 0x8f, 0xc1, 0xbd,
  0x2b, 0x2e, 0x33, 0xbe, 0xca, 0xd0, 0x29, 0xbd, 0xa9, 0x90, 0xb0, 0xbe,
  0xff, 0x8a, 0x4c, 0xbd, 0xc1, 0xe9, 0x85, 0x3e, 0x7e, 0xe6, 0x0e, 0xbd,
  0x68, 0x3a, 0xb5, 0x3c, 0x8e, 0x6e, 0x1b, 0x3e, 0x50, 0x5c, 0x4a, 0xbe,
  0x41, 0x55, 0x2b, 0xbe, 0xfd, 0x33, 0x90, 0x3e, 0xae, 0x2a, 0x06, 0xbd,
  0x33, 0x65, 0x7c, 0xbe, 0x6e, 0x7d, 0x41, 0x3e, 0x33, 0x56, 0x1a, 0xbe,
  0xc4, 0xc1, 0x4f, 0xbe, 0x06, 0xa1, 0x63, 0x3d, 0x34, 0xee, 0xcf, 0xbd,
  0x74, 0x26, 0x30, 0x3c, 0x43, 0xfd, 0x77, 0xbc, 0x8d, 0xde, 0xbd, 0xbe,
  0xb1, 0x58, 0x49, 0xbe, 0xa0, 0xfe, 0xe2, 0x3e, 0x4a, 0xe2, 0x1a, 0xbe,
  0xdc, 0x9e, 0x39, 0x3c, 0xf0, 0x3a, 0xb2, 0xbc, 0x92, 0x4c, 0x07, 0xbd,
  0xba, 0x3c, 0xfc, 0xbd, 0xf2, 0x9d, 0xff, 0xff, 0x04, 0x00, 0x00, 0x00,
  0x00, 0x62, 0x00, 0x00, 0x01, 0x12, 0x00, 0x11, 0xe4, 0xe3, 0xf2, 0xdf,
  0xfa, 0x15, 0x07, 0x00, 0x01, 0xe0, 0xf2, 0xe8, 0x0c, 0x1d, 0x0d, 0xf9,
  0xff, 0xe4, 0xf9, 0xd7, 0x1b, 0x04, 0x19, 0xfe, 0xff, 0xf3, 0x00, 0xd4,
  0x1e, 0x07, 0x35, 0xff, 0xe8, 0xeb, 0xfe, 0xba, 0x0a, 0x0d, 0x40, 0x09,
  0xdd, 0xed, 0xf9, 0xc3, 0x0e, 0x0a, 0x26, 0xfe, 0xe2, 0xfd, 0xf9, 0xba,
  0x19, 0x05, 0x18, 0xf6, 0xf6, 0xfe, 0x07, 0xc3, 0x25, 0xf0, 0x2c, 0xf5,
  0xfa, 0xf6, 0xf6, 0xc9, 0x13, 0xed, 0x1d, 0x00, 0x14, 0x03, 0x0f, 0xd4,
  0x10, 0xfe, 0x0d, 0x07, 0x07, 0xfd, 0x0d, 0xd3, 0x11, 0xf8, 0xfc, 0xfe,
  0xef, 0xff, 0x02, 0xcf, 0x0c, 0xea, 0xfb, 0x10, 0xf7, 0xfc, 0x06, 0xc0,
  0x05, 0x0b, 0xec, 0x02, 0xd7, 0xf2, 0xf7, 0xda, 0xf3, 0x15, 0xfd, 0x14,
  0x03, 0xea, 0xf7, 0xca, 0x05, 0x1d, 0x05, 0x08, 0xf6, 0xf3, 0xf1, 0xe8,
  0xfc, 0x0a, 0x04, 0xf5, 0x00, 0xf0, 0xfb, 0xdd, 0xfb, 0xf3, 0x10, 0x02,
  0xdb, 0xfe, 0xfc, 0xdb, 0x07, 0x05, 0x25, 0xf2, 0xeb, 0x03, 0xed, 0xb6,
  0xfa, 0xf5, 0x22, 0xf0, 0xdf, 0xfa, 0xf9, 0xbb, 0x0f, 0xfd, 0x20, 0x00,
  0xfb, 0xf0, 0xf4, 0xb7, 0x17, 0xf7, 0x22, 0xee, 0xfc, 0xe1, 0xf4, 0xbb,
  0x1c, 0xf2, 0x1a, 0xf6, 0xf4, 0xeb, 0xf8, 0xa3, 0x12, 0xfe, 0x0d, 0x06,
  0x04, 0xf7, 0xfa, 0xca, 0x0a, 0xec, 0x05, 0xf0, 0xe9, 0x0b, 0xf7, 0xba,
  0x20, 0x06, 0xfb, 0x09, 0xf5, 0xf9, 0x17, 0xbf, 0x0f, 0xf0, 0xec, 0x0b,
  0x10, 0xed, 0x0f, 0xc2, 0x09, 0x06, 0xed, 0x01, 0xf4, 0xfd, 0xfc, 0xe1,
  0xeb, 0x0d, 0xf8, 0x00, 0xf4, 0xd5, 0xfd, 0xcc, 0xfd, 0x06, 0x07, 0xf7,
  0xf8, 0xe0, 0xf4, 0xdc, 0xf1, 0x0f, 0x08, 0x0e, 0xea, 0xf9, 0x0f, 0xe2,
  0xf4, 0x00, 0xfe, 0x10, 0xbc, 0x00, 0x0e, 0xc3, 0xf1, 0xee, 0xe4, 0xf5,
  0xc1, 0x15, 0x06, 0xba, 0xd3, 0xf1, 0xf6, 0xf6, 0xd0, 0x12, 0x0b, 0xae,
  0xfe, 0xe2, 0x12, 0xf1, 0xc7, 0x13, 0x0e, 0xaf, 0xef, 0xe6, 0xfe, 0xf3,
  0xce, 0x04, 0x07, 0xbb, 0x0a, 0xe6, 0x0a, 0xfb, 0xd6, 0x01, 0x0c, 0xb7,
  0x00, 0xf8, 0xf1, 0xff, 0xe4, 0x04, 0x14, 0xad, 0xf0, 0xef, 0xf7, 0xfb,
  0xea, 0x16, 0x05, 0xb9, 0x09, 0xf7, 0xed, 0xf6, 0xea, 0xf6, 0x0e, 0xbc,
  0x00, 0x02, 0xf1, 0xfd, 0xeb, 0x0b, 0x18, 0xc1, 0x0f, 0x06, 0xf0, 0x08,
  0xdd, 0xff, 0xfe, 0xdb, 0xeb, 0xfb, 0xf4, 0x06, 0xea, 0xe5, 0xec, 0xc5,
  0x04, 0x04, 0xf6, 0xf8, 0xf6, 0xf9, 0xf8, 0xc4, 0xf4, 0xf0, 0xfe, 0x08,
  0xc9, 0x08, 0xfe, 0xd4, 0xe4, 0x01, 0xda, 0x00, 0xc8, 0xfd, 0xf7, 0xbf,
  0xf4, 0xf1, 0xdc, 0x00, 0xce, 0xf1, 0xf8, 0xac, 0xf0, 0xf1, 0xf9, 0x06,
  0xdf, 0xf7, 0x08, 0x9e, 0xe6, 0xe9, 0x0a, 0x01, 0xe4, 0x01, 0x07, 0xab,
  0xfb, 0xf0, 0xfc, 0xfd, 0xd9, 0x00, 0xfc, 0xa0, 0x05, 0xf8, 0xeb, 0xf1,
  0xe2, 0x02, 0x07, 0xb1, 0xfe, 0x05, 0xd8, 0x07, 0xc3, 0x0e, 0xfb, 0xac,
  0x05, 0xf2, 0xf0, 0x01, 0xdb, 0x0b, 0x02, 0xb6, 0xfc, 0x08, 0xe5, 0xfb,
  0xe6, 0x0c, 0x0d, 0xcf, 0xfd, 0x08, 0xe1, 0xf8, 0xef, 0xfd, 0x11, 0xc6,
  0x04, 0xff, 0xda, 0xfe, 0xd3, 0x05, 0x0d, 0xd8, 0xe0, 0x04, 0xff, 0xfd,
  0xf4, 0xe4, 0xf4, 0xb8, 0xff, 0x0d, 0x04, 0x08, 0xda, 0x02, 0x04, 0xe3,
  0xf2, 0xf7, 0xf1, 0x00, 0xc9, 0xff, 0x04, 0xde, 0xee, 0xf8, 0xe3, 0x0d,
  0xc8, 0xf0, 0xfd, 0xbe, 0xf5, 0x00, 0xe6, 0x0d, 0xc5, 0xe1, 0xff, 0xba,
  0xee, 0xe2, 0xed, 0xf8, 0xd6, 0xf9, 0xfb, 0xb2, 0xed, 0xe4, 0x00, 0xf4,
  0xef, 0x03, 0xf1, 0xb9, 0xe1, 0xdb, 0xeb, 0xf9, 0xe8, 0x01, 0x0a, 0xbf,
  0x08, 0xda, 0xcc, 0x0a, 0xd4, 0x0e, 0x13, 0xb9, 0x0b, 0xfb, 0xcc, 0x0d,
  0xba, 0xf9, 0x0d, 0xb9, 0xf2, 0x05, 0xcb, 0x0e, 0xc0, 0x09, 0xfb, 0xce,
  0x00, 0x02, 0xeb, 0x06, 0xe4, 0xf7, 0xf4, 0xd7, 0x0f, 0x0b, 0xed, 0xff,
  0xfa, 0x01, 0x05, 0xce, 0x05, 0xfb, 0xfe, 0x09, 0xff, 0x0c, 0x0f, 0xef,
  0xf7, 0x02, 0xf5, 0x07, 0xfe, 0xe4, 0xef, 0xd5, 0xf4, 0x03, 0xfb, 0x04,
  0xeb, 0xf1, 0x06, 0xe5, 0x06, 0xf9, 0xf0, 0x0e, 0xdc, 0x00, 0x00, 0xdf,
  0x11, 0xe6, 0xf6, 0x00, 0xe5, 0x00, 0xf3, 0xd8, 0xef, 0xef, 0xe1, 0x07,
  0xe0, 0xee, 0xeb, 0xe0, 0xf8, 0xfe, 0xec, 0xfc, 0xf7, 0xf4, 0xf0, 0xe2,
  0xe9, 0xf5, 0x09, 0xea, 0x02, 0xfe, 0xf2, 0xc3, 0xed, 0xfd, 0xf6, 0xfc,
  0xe0, 0x0e, 0xfc, 0xc6, 0x1a, 0xf4, 0xd0, 0x10, 0xe7, 0x04, 0x05, 0xc3,
  0x07, 0x0b, 0xd5, 0x08, 0xd2, 0x0a, 0xf7, 0xd1, 0x0a, 0x01, 0xdb, 0x01,
  0xc6, 0xfb, 0x0e, 0xce, 0x17, 0x08, 0xdc, 0x12, 0xdf, 0xf4, 0xec, 0xd9,
  0x0e, 0xfa, 0xf6, 0xf5, 0x03, 0x00, 0xf6, 0xe6, 0xfe, 0x08, 0x01, 0xf7,
  0xfd, 0x07, 0x23, 0xde, 0xef, 0x0f, 0xf1, 0x02, 0x09, 0x0c, 0x0d, 0xdc,
  0xf7, 0x00, 0xfd, 0xec, 0x05, 0xfd, 0x14, 0xf2, 0x09, 0x05, 0x08, 0xff,
  0x15, 0x01, 0x0f, 0xfb, 0x22, 0x01, 0x19, 0x03, 0x03, 0xff, 0x0e, 0x01,
  0x20, 0x03, 0x1f, 0xfa, 0x0d, 0xf9, 0x05, 0xf7, 0xff, 0x0d, 0x28, 0xe9,
  0x39, 0xfd, 0xf5, 0x0e, 0x0f, 0xe9, 0x2a, 0xf8, 0x51, 0x08, 0xf4, 0x05,
  0x14, 0xf0, 0x26, 0xe6, 0x25, 0x06, 0xf5, 0xf1, 0x2b, 0xeb, 0x2d, 0xed,
  0x2b, 0xff, 0x0c, 0x0d, 0x3a, 0x07, 0x20, 0x03, 0x05, 0xec, 0x04, 0xf6,
  0x1a, 0x0e, 0x01, 0xff, 0x00, 0xf7, 0xef, 0xd3, 0x1a, 0x04, 0xf9, 0x06,
  0x02, 0x08, 0xfa, 0xda, 0x15, 0x07, 0x00, 0xf2, 0xff, 0x05, 0xf5, 0xe8,
  0x0b, 0x05, 0x00, 0x0f, 0xf1, 0x05, 0x20, 0xf0, 0xf2, 0x17, 0xf6, 0x0b,
  0xfe, 0x0a, 0xff, 0xda, 0xff, 0x17, 0x12, 0xf9, 0x28, 0x09, 0x0c, 0xfc,
  0x17, 0x14, 0x15, 0x01, 0x36, 0x0c, 0x18, 0xf9, 0x29, 0x0f, 0x2a, 0xfb,
  0x59, 0xff, 0x07, 0x09, 0x32, 0x09, 0x48, 0xed, 0x5f, 0xfd, 0xf5, 0x2a,
  0x0f, 0x23, 0x33, 0xed, 0x5e, 0xef, 0xef, 0x23, 0xf6, 0x23, 0x3d, 0xf3,
  0x45, 0x0b, 0xf0, 0x23, 0xff, 0x0d, 0x36, 0xdf, 0x59, 0x16, 0x10, 0x16,
  0x36, 0x04, 0x4f, 0xe0, 0x5c, 0x05, 0x17, 0x38, 0x33, 0xf9, 0x58, 0xe6,
  0x61, 0x00, 0xfe, 0x18, 0x1a, 0x19, 0x36, 0xfb, 0x3c, 0x0a, 0xf3, 0x02,
  0x16, 0x0c, 0x14, 0xfc, 0x1c, 0x13, 0x12, 0xf2, 0x19, 0x0d, 0x01, 0xff,
  0x0c, 0x0d, 0x0a, 0xfe, 0xf9, 0xf6, 0xf6, 0xf6, 0xff, 0x14, 0x1e, 0x00,
  0xfd, 0x1b, 0xf2, 0xfc, 0x00, 0x06, 0xfc, 0xe5, 0xfb, 0x0e, 0x05, 0xf4,
  0x21, 0x13, 0x03, 0x02, 0x05, 0x10, 0x26, 0xf6, 0x3a, 0x23, 0x11, 0x13,
  0x14, 0x08, 0x2c, 0xea, 0x65, 0x18, 0x01, 0x10, 0x28, 0x14, 0x4b, 0xf3,
  0x5b, 0x0b, 0x18, 0x2a, 0x30, 0x07, 0x4d, 0xe8, 0x52, 0xf6, 0x01, 0x36,
  0x19, 0x06, 0x39, 0xfd, 0x33, 0xfb, 0xf8, 0x42, 0x0d, 0x1e, 0x48, 0xfb,
  0x44, 0xf8, 0x01, 0x3c, 0x32, 0x0f, 0x53, 0xf2, 0x5a, 0x11, 0xfd, 0x28,
  0x29, 0x11, 0x56, 0xea, 0x6d, 0x10, 0xff, 0x2f, 0x24, 0x04, 0x36, 0xf2,
  0x66, 0x26, 0x16, 0x17, 0x11, 0x0a, 0x17, 0x00, 0x3b, 0x1d, 0x28, 0x24,
  0x0b, 0x08, 0x14, 0xfd, 0x25, 0x21, 0x1e, 0x17, 0x07, 0x04, 0xf3, 0xfd,
  0xf3, 0x1f, 0x23, 0xfa, 0xf6, 0x04, 0xf5, 0xfb, 0x0e, 0x18, 0x1a, 0xfc,
  0xfc, 0x12, 0x0b, 0xfd, 0x1d, 0x1f, 0x10, 0x06, 0x07, 0x0a, 0x0e, 0x02,
  0x33, 0x2c, 0x18, 0x28, 0x10, 0x0c, 0x2b, 0xf2, 0x3e, 0x1a, 0x14, 0x32,
  0x22, 0x0e, 0x27, 0xe0, 0x32, 0x0b, 0x0c, 0x35, 0x2b, 0x0e, 0x2b, 0xe5,
  0x33, 0xe9, 0xf8, 0x5a, 0x30, 0x10, 0x2a, 0xeb, 0x24, 0xec, 0x08, 0x44,
  0x19, 0x22, 0x32, 0xf8, 0x27, 0xf5, 0xe5, 0x5f, 0x26, 0x21, 0x48, 0xfb,
  0x2c, 0x01, 0xff, 0x37, 0x19, 0x13, 0x22, 0xe3, 0x3a, 0x1a, 0x08, 0x2c,
  0x14, 0x0f, 0x0a, 0xee, 0x3d, 0x2b, 0x0a, 0x1e, 0x16, 0x0d, 0x02, 0xf9,
  0x20, 0x2a, 0x1e, 0x2f, 0x14, 0x04, 0x07, 0xf9, 0x2b, 0x28, 0x11, 0x23,
  0x0d, 0x0d, 0xff, 0x0e, 0x01, 0x23, 0x29, 0xfc, 0xee, 0x0f, 0xe8, 0x11,
  0xf8, 0x15, 0x12, 0xf2, 0x02, 0x17, 0xfb, 0x06, 0x10, 0x2c, 0x1e, 0x16,
  0x0e, 0x27, 0x15, 0xf3, 0x0f, 0x22, 0x16, 0x1c, 0x13, 0x21, 0x03, 0x03,
  0x28, 0x2b, 0x0e, 0x26, 0x06, 0x16, 0x1a, 0xff, 0x10, 0x14, 0x17, 0x46,
  0x1b, 0x23, 0x18, 0xec, 0x0c, 0xf1, 0xf7, 0x60, 0x31, 0x07, 0x29, 0xf1,
  0x0e, 0xd4, 0xee, 0x69, 0x18, 0x2b, 0x1e, 0x00, 0x10, 0xcb, 0xe3, 0x5b,
  0x07, 0x17, 0x23, 0xff, 0x24, 0xdd, 0xed, 0x4c, 0x05, 0x11, 0x0b, 0xff,
  0x1b, 0x14, 0xf7, 0x3e, 0x05, 0x18, 0xfd, 0xf2, 0x25, 0x0f, 0x06, 0x30,
  0x09, 0x0a, 0x11, 0xfa, 0x0c, 0x1c, 0x08, 0x33, 0x0d, 0x1f, 0x05, 0x0a,
  0x13, 0x19, 0x08, 0x18, 0xfc, 0x01, 0xf3, 0x04, 0xf3, 0x20, 0x1f, 0x0a,
  0xec, 0x00, 0xf8, 0xf8, 0xfa, 0xff, 0x0c, 0xf7, 0xf8, 0x08, 0x0d, 0x06,
  0x02, 0x13, 0x0a, 0x0a, 0xfa, 0x16, 0x08, 0x00, 0xfc, 0x1b, 0x16, 0x20,
  0xfa, 0x0f, 0xfe, 0xfc, 0x19, 0x14, 0x0d, 0x38, 0x04, 0x0e, 0x19, 0xfa,
  0x18, 0xf4, 0xfe, 0x4a, 0x1d, 0x21, 0x1a, 0xee, 0x13, 0xea, 0xed, 0x4e,
  0x29, 0x2e, 0x23, 0xef, 0x03, 0xcd, 0xee, 0x6e, 0x1e, 0x16, 0x29, 0xea,
  0x0b, 0xd8, 0xdc, 0x55, 0x0c, 0x1e, 0x1d, 0xfe, 0x11, 0xeb, 0xe0, 0x54,
  0x14, 0x18, 0x19, 0xf4, 0x08, 0xfa, 0xe7, 0x54, 0xff, 0x07, 0x0d, 0xf5,
  0x1e, 0x0a, 0xff, 0x43, 0x14, 0x05, 0x09, 0xfa, 0x0e, 0x18, 0x04, 0x1a,
  0x0d, 0x12, 0x08, 0x06, 0x13, 0x12, 0x12, 0x0b, 0x10, 0xf8, 0xf7, 0xfd,
  0xf5, 0x12, 0x10, 0x16, 0xf6, 0xf4, 0xe5, 0xfa, 0xf2, 0xfe, 0x04, 0x19,
  0xf2, 0x15, 0x07, 0xf3, 0xf5, 0x0e, 0x10, 0x0b, 0x0c, 0x0f, 0x0c, 0xfd,
  0xfa, 0x0e, 0x16, 0x28, 0xfa, 0x0c, 0x11, 0x0a, 0x0e, 0x0e, 0x04, 0x39,
  0x13, 0x12, 0x0a, 0x02, 0x01, 0x00, 0xfa, 0x4b, 0x0b, 0x15, 0x06, 0xf0,
  0x11, 0xf6, 0xff, 0x52, 0x1d, 0x2b, 0x23, 0xf0, 0x18, 0xe0, 0xd6, 0x50,
  0x10, 0x28, 0x19, 0x02, 0x17, 0xe6, 0xe8, 0x44, 0x19, 0x2e, 0x02, 0x05,
  0x0d, 0xe7, 0xe6, 0x50, 0xfd, 0x16, 0x09, 0x04, 0x12, 0x03, 0xef, 0x3c,
  0x06, 0x1a, 0x06, 0x06, 0x14, 0x0f, 0x0b, 0x26, 0x11, 0x01, 0xf4, 0xfb,
  0x14, 0x0a, 0x08, 0x26, 0x00, 0x09, 0xfc, 0xf6, 0xee, 0xf2, 0xfa, 0x07,
  0x02, 0x03, 0xf1, 0xf8, 0xe8, 0x00, 0x0c, 0x03, 0xf9, 0xf3, 0xe2, 0x09,
  0xd5, 0x0a, 0xf9, 0x0d, 0x0a, 0xff, 0xf4, 0xfc, 0xe8, 0x09, 0xfb, 0x13,
  0xf3, 0x10, 0xf2, 0xf2, 0xee, 0x04, 0x0d, 0x18, 0xfb, 0x08, 0x0a, 0x03,
  0xe4, 0x09, 0x02, 0x3a, 0x15, 0x14, 0x0f, 0xed, 0x0a, 0x02, 0xfc, 0x54,
  0x13, 0x1a, 0x1e, 0xf4, 0x29, 0xdf, 0xed, 0x4d, 0x0e, 0x1c, 0x0a, 0x07,
  0x0c, 0xf4, 0xea, 0x41, 0x0f, 0x2e, 0x07, 0x09, 0x1f, 0xe5, 0xd8, 0x4b,
  0x1c, 0x10, 0x0c, 0x02, 0x17, 0xf1, 0xe4, 0x3c, 0x11, 0x1a, 0x00, 0x0e,
  0x0f, 0xf3, 0xf5, 0x2c, 0xfa, 0x18, 0x01, 0xf8, 0x0c, 0x0b, 0xe5, 0x2d,
  0x00, 0x0c, 0xfe, 0x02, 0xfb, 0xfd, 0x05, 0x12, 0xf9, 0xef, 0xeb, 0x06,
  0xe4, 0xff, 0x12, 0x0f, 0x01, 0xed, 0xef, 0xf3, 0xde, 0x0b, 0x0e, 0xfd,
  0xfb, 0x0b, 0x05, 0xfe, 0x09, 0x01, 0xf2, 0x0e, 0x01, 0xf7, 0x0c, 0x04,
  0xfb, 0xf9, 0x0c, 0x0a, 0xf1, 0xf3, 0x0d, 0xf3, 0x0e, 0x0c, 0xf7, 0x04,
  0x07, 0x03, 0x08, 0xf4, 0xf8, 0xf3, 0xf1, 0x0a, 0x07, 0xf8, 0x08, 0xf2,
  0xf7, 0xf6, 0x05, 0x0c, 0x07, 0xf9, 0x08, 0xf6, 0x0c, 0xf8, 0x0a, 0xfb,
  0xfa, 0x04, 0x04, 0xf2, 0xf2, 0x00, 0x06, 0xf5, 0xfa, 0x01, 0x06, 0x03,
  0x07, 0x01, 0x02, 0x04, 0xf3, 0x07, 0xfa, 0xf9, 0xfe, 0xfe, 0xfe, 0xfb,
  0xfc, 0xf4, 0xfc, 0xf4, 0xf4, 0xff, 0xf4, 0x03, 0x00, 0xf3, 0xf3, 0x0a,
  0x06, 0xfc, 0x03, 0x07, 0xfc, 0xfa, 0x0d, 0x08, 0x0b, 0xf8, 0xf3, 0x03,
  0xf5, 0xff, 0xf7, 0x0b, 0x00, 0x01, 0xfa, 0xf2, 0xfd, 0xf5, 0x03, 0x0b,
  0xf6, 0x09, 0xff, 0xff, 0x0a, 0x06, 0xfb, 0xf8, 0x0a, 0xf1, 0x04, 0x0c,
  0xf5, 0x03, 0x0c, 0xff, 0x01, 0x09, 0x00, 0x0b, 0xfb, 0xff, 0x01, 0xf0,
  0x04, 0x01, 0x07, 0x0b, 0x00, 0x00, 0x03, 0xf5, 0x0b, 0xf3, 0x04, 0xf1,
  0xf4, 0x00, 0x0b, 0x03, 0xf8, 0xf8, 0xfc, 0xf3, 0xfd, 0xfa, 0x00, 0x06,
  0x0e, 0xfc, 0x01, 0xf5, 0x02, 0x05, 0x00, 0x09, 0x07, 0xfb, 0x00, 0x0b,
  0x0b, 0x07, 0xfa, 0x0b, 0x01, 0x07, 0xfe, 0x02, 0xf4, 0xf8, 0xf9, 0x08,
  0xfc, 0xfd, 0xfa, 0xf4, 0xfe, 0xf2, 0xfa, 0xf3, 0x00, 0x0b, 0xfd, 0x06,
  0xfd, 0xf7, 0x01, 0xf6, 0x0d, 0xf2, 0xf5, 0xff, 0xf5, 0x00, 0x0e, 0xfc,
  0xf7, 0x03, 0xf6, 0x0c, 0x0c, 0xf7, 0x03, 0x06, 0xf2, 0xfe, 0x08, 0x02,
  0xff, 0x00, 0xfb, 0x04, 0x03, 0x03, 0x09, 0x06, 0xfa, 0xf5, 0xfc, 0xf5,
  0xfe, 0xff, 0x08, 0x0c, 0xf0, 0xf3, 0xfe, 0x01, 0x09, 0xfa, 0xfd, 0x07,
  0x07, 0xfb, 0xf5, 0xff, 0x0a, 0xf9, 0x03, 0xf3, 0x09, 0x0a, 0xfa, 0x04,
  0x05, 0xf4, 0x0c, 0x07, 0xf4, 0x0a, 0x04, 0x02, 0xf9, 0xf7, 0xf1, 0x0c,
  0xf8, 0xf5, 0xfd, 0x00, 0x08, 0xfa, 0xfa, 0x0b, 0xf9, 0xf3, 0xf6, 0xf8,
  0xfc, 0x0b, 0x07, 0x06, 0x05, 0x0b, 0x06, 0x0a, 0x0d, 0x0c, 0x0c, 0x01,
  0xf8, 0x02, 0xf8, 0xff, 0xfb, 0x01, 0xf4, 0xf4, 0x07, 0xf6, 0x01, 0x01,
  0x0e, 0x07, 0xfb, 0xf8, 0x08, 0xf1, 0xf3, 0xf9, 0x0d, 0x03, 0x07, 0x0a,
  0xfa, 0xfa, 0xf2, 0xfc, 0x04, 0x0b, 0xfe, 0xf3, 0x0d, 0xfb, 0xf9, 0xf9,
  0x03, 0xf5, 0xff, 0xf2, 0x00, 0xf1, 0xf1, 0x0d, 0x0e, 0xf7, 0x0a, 0x01,
  0xfa, 0x01, 0xf7, 0xf3, 0xf2, 0x0c, 0xfb, 0x06, 0x09, 0x00, 0xfd, 0x05,
  0x02, 0xf7, 0x0a, 0xfc, 0x04, 0x00, 0xf8, 0x06, 0x0a, 0x05, 0x09, 0xf1,
  0xf1, 0xfa, 0xf2, 0x03, 0x0c, 0x01, 0xf1, 0x0a, 0x0b, 0xff, 0x08, 0xf7,
  0x08, 0xfa, 0xfb, 0x0d, 0x00, 0xf7, 0xf6, 0xfa, 0x05, 0xfc, 0x0a, 0x0e,
  0x00, 0x02, 0x00, 0xfb, 0x01, 0xf2, 0x09, 0xfe, 0xf5, 0x03, 0x09, 0xfb,
  0x0d, 0xf2, 0xf2, 0xf3, 0x03, 0xfe, 0xfc, 0x0a, 0xf2, 0xf3, 0x0c, 0xf3,
  0x0c, 0x0d, 0x05, 0xf6, 0xf3, 0xf8, 0x07, 0xff, 0x04, 0xfe, 0x03, 0xf9,
  0x0d, 0x0d, 0x08, 0x01, 0x02, 0x04, 0x04, 0x05, 0x06, 0xf7, 0x08, 0x0a,
  0x01, 0xf0, 0xfe, 0xf1, 0xf3, 0x08, 0x07, 0xfe, 0x07, 0x0c, 0x0d, 0xf6,
  0x06, 0x09, 0x04, 0xf9, 0xf7, 0xfd, 0xf4, 0xf7, 0xf3, 0xfc, 0x0b, 0xf6,
  0xfc, 0xff, 0xf3, 0x05, 0xf9, 0xf2, 0xfd, 0xf5, 0xfc, 0xff, 0xfa, 0x0d,
  0x04, 0x06, 0x00, 0x0e, 0xfb, 0x0d, 0xf5, 0x07, 0xf8, 0xf6, 0xf3, 0xf5,
  0xf2, 0x05, 0xfb, 0x07, 0x07, 0x0b, 0xf6, 0x0c, 0x0a, 0xfa, 0xf7, 0x03,
  0x0b, 0xfa, 0x0d, 0xf4, 0xf2, 0x02, 0x01, 0xfa, 0xf6, 0x0d, 0x09, 0xfe,
  0x07, 0x08, 0x06, 0x02, 0xf9, 0x0a, 0x08, 0x0d, 0xfc, 0xf3, 0xf8, 0xf3,
  0xf7, 0x0d, 0x07, 0x06, 0xfb, 0xfc, 0xf9, 0xf3, 0x0d, 0x0a, 0xf7, 0xf4,
  0x0d, 0xff, 0x00, 0xfe, 0x00, 0xf8, 0x00, 0xf3, 0x08, 0xf1, 0x07, 0x04,
  0x05, 0xfd, 0xf2, 0xfc, 0x09, 0xf1, 0x09, 0xf6, 0xf2, 0xfe, 0x09, 0xf6,
  0xf4, 0xf9, 0xf8, 0x05, 0x0e, 0x0c, 0xf9, 0xf3, 0x00, 0x05, 0xfb, 0x02,
  0x05, 0x09, 0x02, 0xf5, 0xf3, 0xf9, 0x00, 0xfd, 0xf6, 0xfe, 0xf8, 0xf4,
  0xf7, 0x08, 0x02, 0x02, 0x01, 0x0c, 0xf5, 0x0a, 0x01, 0x02, 0x04, 0xf9,
  0xff, 0xf4, 0x03, 0xf6, 0x01, 0xf7, 0xf5, 0x04, 0x0d, 0xf6, 0xff, 0x02,
  0xfc, 0xfb, 0x0b, 0xf4, 0xf2, 0x0a, 0x06, 0x04, 0xf9, 0xf4, 0xf2, 0x0c,
  0xf9, 0x09, 0xfc, 0x07, 0x06, 0x02, 0xfc, 0x0d, 0x02, 0x00, 0xfc, 0x07,
  0x0c, 0xfa, 0xf9, 0xf2, 0x0d, 0x0a, 0x09, 0xf9, 0xfc, 0x00, 0xfe, 0xfa,
  0x05, 0xfa, 0xff, 0xf9, 0x02, 0x01, 0xf2, 0xf0, 0xf5, 0x04, 0xf3, 0x09,
  0xfe, 0xfa, 0x0c, 0x03, 0x0d, 0xfd, 0xf8, 0x00, 0xfe, 0x06, 0x0a, 0xf6,
  0x04, 0x03, 0xf3, 0xfa, 0xf9, 0x08, 0x01, 0x01, 0xf6, 0x08, 0xfd, 0x0c,
  0xf1, 0xf8, 0xfc, 0xf3, 0x02, 0xf9, 0x09, 0xf6, 0x06, 0x02, 0xfa, 0x0b,
  0xf5, 0x09, 0xfc, 0x0b, 0xf9, 0x07, 0xf8, 0xfe, 0x0b, 0xfc, 0xfe, 0x04,
  0xf4, 0xf8, 0x05, 0xf6, 0xf3, 0xfb, 0x07, 0xfc, 0xf7, 0xff, 0xfe, 0xff,
  0x01, 0x08, 0x03, 0xfa, 0xfe, 0x07, 0x04, 0xf7, 0x04, 0x09, 0x0d, 0xfe,
  0xfb, 0x06, 0xfb, 0xfe, 0x01, 0x09, 0x07, 0x06, 0xfb, 0x0a, 0x00, 0x0c,
  0x01, 0xf8, 0x08, 0xf4, 0xfa, 0xf8, 0x0b, 0xfd, 0x0c, 0xfb, 0xf8, 0x09,
  0x08, 0x0d, 0x0c, 0xfa, 0xfe, 0x0d, 0xfd, 0xf7, 0xfc, 0x04, 0x0e, 0x0b,
  0x03, 0x09, 0x00, 0x05, 0x07, 0x07, 0x00, 0x00, 0x04, 0xf6, 0xf0, 0xfb,
  0xf9, 0x0d, 0x04, 0x05, 0xf9, 0xfd, 0xfc, 0xff, 0xf3, 0x05, 0x09, 0xf1,
  0xff, 0xfd, 0x03, 0xf9, 0xf2, 0xfd, 0xf2, 0xfe, 0xf8, 0x03, 0xf1, 0x06,
  0xf6, 0x03, 0x0c, 0xf4, 0x03, 0xf3, 0x06, 0x05, 0xfe, 0xf8, 0x04, 0x01,
  0x01, 0x01, 0x05, 0x0d, 0xf4, 0xf8, 0x09, 0xfc, 0xf6, 0xfa, 0x0c, 0x0c,
  0xf7, 0x08, 0xf6, 0x03, 0x02, 0x08, 0xff, 0x01, 0x0a, 0x08, 0xf7, 0xf7,
  0xfc, 0xf2, 0x00, 0xf9, 0x06, 0xf1, 0x07, 0x06, 0xfe, 0x0b, 0x07, 0x0d,
  0x01, 0xfd, 0xfe, 0xf5, 0x02, 0xf2, 0xf7, 0xfb, 0x0a, 0x03, 0xfe, 0x0a,
  0xff, 0x07, 0x01, 0x0b, 0xf8, 0x07, 0xfe, 0xf2, 0xf3, 0xf8, 0xf1, 0xf2,
  0x08, 0x03, 0xf2, 0x01, 0xf6, 0x03, 0xfa, 0xf9, 0xfc, 0xfb, 0x05, 0xf1,
  0x04, 0xf5, 0xf8, 0x0d, 0xf6, 0xf0, 0xf8, 0xf9, 0xfd, 0xf7, 0xf8, 0xfb,
  0xf8, 0x00, 0x00, 0x05, 0x0c, 0x0d, 0xf6, 0xf4, 0xf1, 0xf2, 0x02, 0xfc,
  0xf5, 0x04, 0xfb, 0x04, 0xfa, 0x09, 0xfa, 0xf6, 0xfa, 0x00, 0xf0, 0x0a,
  0xf3, 0x01, 0xfa, 0x0b, 0xf2, 0xf4, 0xfc, 0x0d, 0xfa, 0xfb, 0x0c, 0x01,
  0xf4, 0x01, 0xf3, 0xf2, 0x05, 0xf5, 0xfc, 0xf7, 0xff, 0x0e, 0xfb, 0xf3,
  0x04, 0xfb, 0xf7, 0xff, 0xfe, 0xf2, 0xfb, 0xfc, 0xf0, 0x07, 0xf6, 0x0b,
  0x0b, 0xf7, 0xf4, 0xf7, 0xf7, 0xf1, 0xfc, 0x03, 0x07, 0xfc, 0xfb, 0x09,
  0xfb, 0x03, 0xfb, 0x00, 0xf4, 0xfa, 0xf2, 0xf2, 0xf9, 0xf4, 0xfd, 0xf2,
  0x04, 0x0e, 0x06, 0xf8, 0xf6, 0x0c, 0x0d, 0xf1, 0x0e, 0xfd, 0xf7, 0xf9,
  0xf1, 0x0c, 0x0b, 0x0c, 0xfd, 0x01, 0xf4, 0xfe, 0xfb, 0xf8, 0x0d, 0xf9,
  0x02, 0xfc, 0xfc, 0xf3, 0x02, 0xfc, 0x05, 0xf8, 0x08, 0x02, 0xff, 0xf3,
  0xfe, 0xf4, 0x01, 0x04, 0x07, 0x0a, 0xff, 0xf7, 0x0c, 0xf8, 0x0e, 0x07,
  0x0f, 0x0d, 0xf3, 0x0d, 0x06, 0xfe, 0xf8, 0xf5, 0xfb, 0xf9, 0x04, 0x0b,
  0x01, 0xf7, 0x04, 0xf9, 0xff, 0x0b, 0x08, 0xf6, 0xfc, 0xf0, 0xfd, 0xff,
  0xfd, 0xfb, 0x05, 0xf5, 0xff, 0xfd, 0x03, 0xfa, 0x00, 0x01, 0x07, 0xf8,
  0x0d, 0xfe, 0x00, 0x04, 0x0c, 0x0e, 0x0d, 0xfd, 0x07, 0x00, 0x02, 0xf1,
  0xfb, 0xf6, 0xf9, 0x0c, 0x07, 0xf2, 0x0e, 0xfb, 0x05, 0xf6, 0xfb, 0xff,
  0x00, 0x06, 0x00, 0xf4, 0x0a, 0x05, 0xf4, 0xfc, 0x06, 0xf8, 0xf2, 0x05,
  0xfd, 0xf8, 0xfc, 0xf7, 0x09, 0x0b, 0xfa, 0xf4, 0xfd, 0xfa, 0x09, 0x0d,
  0xfa, 0x04, 0xfc, 0xf8, 0xfe, 0x0d, 0x0c, 0xff, 0x03, 0x02, 0x05, 0x03,
  0xfe, 0xf3, 0xf5, 0x07, 0xfa, 0xf5, 0x09, 0x04, 0xfa, 0x09, 0x0a, 0xf4,
  0xf7, 0xff, 0xfb, 0x04, 0xf4, 0x03, 0xf4, 0x05, 0xf8, 0x07, 0xf5, 0x03,
  0x03, 0x0b, 0x0a, 0xf8, 0x08, 0xfa, 0x00, 0x08, 0x07, 0xfd, 0x04, 0xfa,
  0x0d, 0x0c, 0xf8, 0x04, 0xfc, 0xf5, 0x0b, 0xf9, 0xf9, 0xf6, 0x05, 0x04,
  0x0c, 0xfd, 0xf7, 0xf2, 0x06, 0xf7, 0x0c, 0xf7, 0x08, 0xfd, 0x0a, 0xfe,
  0xf2, 0xf4, 0xfa, 0xf3, 0x0b, 0xf4, 0x0c, 0xfe, 0x07, 0xf8, 0xf7, 0x05,
  0xfc, 0x09, 0x03, 0xf3, 0x03, 0x0b, 0xfb, 0x03, 0xf6, 0x0a, 0xf7, 0xf4,
  0x09, 0x00, 0x08, 0x0d, 0x02, 0xfc, 0xfb, 0xfe, 0xfd, 0x08, 0xf3, 0x02,
  0xff, 0x09, 0xf3, 0x0a, 0xf3, 0xf8, 0xf3, 0xf8, 0x0c, 0x00, 0x0c, 0xf3,
  0x05, 0xf7, 0xf9, 0xf7, 0x00, 0x0b, 0xf2, 0x08, 0xfa, 0x08, 0xf8, 0xf4,
  0x04, 0xff, 0x04, 0xf8, 0xfe, 0x0b, 0xfd, 0xfa, 0xff, 0x06, 0xfc, 0xf3,
  0xfd, 0x0c, 0x02, 0xfe, 0x0d, 0x0b, 0xfa, 0x0a, 0xf5, 0xf4, 0x05, 0xfb,
  0xf3, 0x06, 0xfa, 0xf4, 0x03, 0x07, 0x0c, 0xf6, 0xfb, 0xfa, 0xff, 0x02,
  0x0b, 0x02, 0x00, 0xff, 0xf4, 0xf2, 0xf7, 0xfd, 0xf9, 0x01, 0x0d, 0xfb,
  0x03, 0xfa, 0xf4, 0x01, 0x07, 0x08, 0xf4, 0xf9, 0xf5, 0x0d, 0xf3, 0x0a,
  0x04, 0xf7, 0x07, 0xfb, 0xfa, 0xf5, 0xf5, 0x07, 0xf7, 0x0d, 0x0c, 0x08,
  0xfe, 0x0e, 0x01, 0xf3, 0x02, 0xfe, 0xff, 0x0c, 0x03, 0xff, 0x0d, 0x0d,
  0xfd, 0xf7, 0x02, 0xf9, 0xf6, 0x0d, 0x01, 0x01, 0x04, 0x07, 0xf4, 0x01,
  0xf9, 0x0d, 0xf3, 0xf6, 0x04, 0x0d, 0x02, 0xfd, 0x06, 0x08, 0xfb, 0x0d,
  0x06, 0xfa, 0x01, 0xfd, 0x08, 0xf9, 0xf4, 0x03, 0xfd, 0x02, 0xf2, 0xf9,
  0x08, 0x03, 0x07, 0xf8, 0xf0, 0xf1, 0x00, 0xfd, 0xf9, 0x04, 0x05, 0x07,
  0xff, 0xf9, 0x08, 0xf9, 0xfe, 0xf3, 0xf7, 0x09, 0x09, 0x05, 0x05, 0x08,
  0x00, 0xf9, 0xf0, 0xfc, 0xf6, 0x00, 0xfd, 0xf9, 0x0b, 0xf3, 0x07, 0x04,
  0xf7, 0x00, 0xf2, 0x09, 0x0e, 0x0a, 0xf9, 0xf4, 0x0d, 0x00, 0xfc, 0xfd,
  0xfe, 0xfe, 0x0c, 0x06, 0x07, 0xff, 0x0e, 0xfc, 0xfb, 0x04, 0x08, 0x01,
  0xf8, 0xf4, 0xfc, 0xf2, 0xfc, 0x0b, 0xf6, 0x0e, 0x02, 0xfd, 0xfa, 0x01,
  0xfb, 0x0b, 0x07, 0x0e, 0xf9, 0xf4, 0xf5, 0xfc, 0xf3, 0xfb, 0x05, 0xf4,
  0xfe, 0xf1, 0x05, 0xf5, 0x04, 0xf2, 0x04, 0x02, 0xf3, 0xfa, 0xff, 0x07,
  0x0c, 0xf7, 0x05, 0x02, 0x05, 0xf2, 0xf2, 0x00, 0xf5, 0x06, 0xf3, 0xfe,
  0x05, 0x0b, 0xf3, 0xf3, 0x0b, 0xf9, 0x08, 0x09, 0x05, 0xf5, 0x07, 0xf4,
  0x0e, 0x04, 0xf8, 0x03, 0x0c, 0xf5, 0x0c, 0x0b, 0x07, 0xff, 0xfc, 0xfc,
  0x02, 0x02, 0xf2, 0x0d, 0x0c, 0xff, 0xfa, 0xf6, 0x0c, 0xfb, 0x06, 0xf8,
  0xfc, 0x02, 0xf1, 0x02, 0xfb, 0x04, 0x03, 0xfc, 0x06, 0xf8, 0xf6, 0x0b,
  0x02, 0x06, 0x00, 0xf6, 0x01, 0xfb, 0x0b, 0x03, 0xfe, 0xfa, 0x0b, 0x01,
  0xf9, 0xff, 0x07, 0x0f, 0xf1, 0xfe, 0x06, 0xf3, 0xf4, 0x00, 0x0c, 0x07,
  0xfa, 0xfd, 0x0b, 0x08, 0x0d, 0xf9, 0x07, 0xfc, 0x06, 0xf9, 0x07, 0xf6,
  0x08, 0x07, 0x00, 0xf4, 0x09, 0xf0, 0x02, 0xf3, 0xf8, 0x04, 0xff, 0xfc,
  0xf9, 0xfe, 0x08, 0xfe, 0xf5, 0xfb, 0xf3, 0x03, 0xf5, 0x02, 0xfc, 0x14,
  0xfd, 0x01, 0xfe, 0x0a, 0x0a, 0x11, 0x0c, 0xff, 0x19, 0x08, 0x05, 0xed,
  0x09, 0x17, 0x13, 0x06, 0x10, 0x02, 0xfe, 0xf5, 0x03, 0x13, 0x02, 0x12,
  0x08, 0x0c, 0x11, 0xe5, 0x05, 0xfd, 0x14, 0x0b, 0xdd, 0x17, 0x1d, 0xeb,
  0xf6, 0xee, 0x03, 0x1f, 0xc5, 0x1b, 0x11, 0xef, 0xe4, 0xe9, 0xf8, 0x18,
  0xe0, 0x0b, 0xf7, 0xce, 0xd8, 0xf0, 0xe5, 0x1a, 0xe0, 0x0b, 0xff, 0xd8,
  0xf3, 0xe7, 0xfc, 0x18, 0xf1, 0xfb, 0xf5, 0xd1, 0x06, 0xf0, 0x06, 0x03,
  0x0b, 0x08, 0xff, 0xd5, 0x14, 0xf1, 0xf1, 0xfd, 0x12, 0xef, 0xee, 0xe7,
  0x0b, 0xfb, 0xee, 0xf5, 0x1f, 0x0e, 0xfc, 0xce, 0x1d, 0xf8, 0xec, 0xf8,
  0x20, 0xf2, 0xf7, 0xe6, 0x01, 0x07, 0xdd, 0x04, 0xf3, 0xf7, 0x04, 0xe0,
  0xeb, 0x09, 0x03, 0x09, 0x0a, 0x05, 0xfa, 0x09, 0xfa, 0x10, 0x01, 0x1c,
  0x1b, 0x09, 0x15, 0x05, 0xe9, 0x01, 0x17, 0x15, 0x05, 0x02, 0x07, 0xe7,
  0xfd, 0xfb, 0x12, 0x0a, 0xfd, 0x0b, 0x09, 0xe8, 0xeb, 0xda, 0xf6, 0x0b,
  0xf2, 0x0c, 0x05, 0xe1, 0xce, 0xc8, 0x05, 0x08, 0xe2, 0x0f, 0x13, 0xec,
  0xc0, 0xc4, 0xf1, 0x12, 0xe8, 0xfc, 0xf9, 0xfb, 0xc7, 0xd2, 0xe6, 0x01,
  0xcc, 0xfa, 0xf8, 0xe5, 0xf4, 0xd2, 0xe3, 0x15, 0xde, 0xf1, 0xfd, 0xde,
  0xf5, 0xd6, 0xf1, 0xfc, 0x06, 0x05, 0xee, 0xe8, 0xfc, 0xe2, 0xfd, 0xfc,
  0x1d, 0x0c, 0xff, 0xe7, 0x05, 0xec, 0xed, 0x12, 0x11, 0xf5, 0x08, 0xde,
  0x04, 0xf8, 0xfb, 0x0e, 0x0d, 0xff, 0xf3, 0xe3, 0xe9, 0xed, 0xdd, 0x08,
  0x07, 0xf9, 0xfe, 0xdc, 0xde, 0xff, 0xf8, 0x08, 0xfe, 0xf7, 0xf3, 0xfc,
  0x02, 0xfa, 0x0e, 0x06, 0x14, 0x08, 0x07, 0xfd, 0xd3, 0xfa, 0xfe, 0x09,
  0xf9, 0x1c, 0x09, 0x02, 0xd8, 0xe0, 0xed, 0x05, 0xdb, 0x11, 0x0c, 0x00,
  0xd9, 0xc9, 0xc4, 0x11, 0xc7, 0x0d, 0x10, 0xf6, 0xb7, 0xc1, 0xba, 0x06,
  0xc0, 0x0b, 0x08, 0x0b, 0xb0, 0xbe, 0xbe, 0x01, 0xcf, 0xfb, 0xfc, 0x14,
  0xaa, 0xac, 0xb5, 0x09, 0xc9, 0x0f, 0x02, 0x02, 0xd3, 0xbb, 0xb7, 0x0f,
  0xc8, 0xfc, 0x0d, 0xfe, 0xeb, 0xdd, 0xcb, 0x02, 0xe3, 0x0a, 0x11, 0xe3,
  0xe9, 0xd8, 0xe2, 0xfc, 0xf5, 0x00, 0x06, 0xef, 0x0c, 0xe2, 0xf5, 0xf8,
  0x0a, 0x03, 0x09, 0xde, 0xf7, 0xeb, 0xf7, 0x0c, 0x06, 0xe9, 0x06, 0xd5,
  0xf0, 0xe7, 0xeb, 0x01, 0xf9, 0xe0, 0x09, 0xeb, 0xee, 0x0f, 0xfa, 0xff,
  0x14, 0x06, 0x0c, 0x03, 0xfd, 0xf3, 0xeb, 0x14, 0x08, 0x0b, 0x0b, 0x04,
  0xec, 0xf7, 0xd9, 0x0e, 0xf1, 0x10, 0x03, 0xfa, 0xd8, 0xdd, 0xcb, 0x13,
  0xc5, 0x18, 0x15, 0xf6, 0xbb, 0xce, 0xcf, 0x18, 0xaa, 0x17, 0x06, 0x0f,
  0xb2, 0xc9, 0xb6, 0x16, 0xc7, 0x13, 0x14, 0x16, 0xaa, 0xae, 0xcf, 0xff,
  0xb6, 0x12, 0x1a, 0x19, 0xbb, 0xc4, 0xc8, 0x03, 0xb1, 0x1a, 0x19, 0x1d,
  0xc5, 0xbb, 0xc1, 0x1b, 0xc5, 0x0b, 0x16, 0x1d, 0xe8, 0xdb, 0xba, 0x01,
  0xc8, 0x04, 0x0c, 0x12, 0xe1, 0xe6, 0xd5, 0x01, 0xdf, 0x03, 0xf8, 0xfa,
  0xfa, 0xf0, 0xdc, 0xff, 0xf5, 0x04, 0x06, 0xe5, 0xf6, 0xee, 0xe5, 0xf4,
  0x0d, 0x08, 0x12, 0xf2, 0xff, 0xe7, 0xdc, 0xf5, 0x12, 0xfb, 0x10, 0xe6,
  0xf4, 0xf4, 0xfc, 0xfe, 0xf6, 0x05, 0x01, 0xfc, 0xe4, 0xf9, 0xed, 0x09,
  0xfe, 0x03, 0x00, 0x01, 0xf7, 0xe0, 0xeb, 0x10, 0xd1, 0xf8, 0x10, 0xf1,
  0xe0, 0xdc, 0xe9, 0x15, 0xcc, 0x07, 0xfb, 0xfe, 0xc8, 0xd5, 0xca, 0x0b,
  0xba, 0x03, 0x0b, 0x2b, 0xb5, 0xda, 0xd9, 0xf6, 0xc4, 0x13, 0x0b, 0x27,
  0xcb, 0xd5, 0xdb, 0x00, 0xd7, 0x14, 0xf6, 0x25, 0xdc, 0xcc, 0xcf, 0xfc,
  0xce, 0x0f, 0x16, 0x1f, 0xd1, 0xbc, 0xc3, 0x05, 0xba, 0x0a, 0x0f, 0x2a,
  0xce, 0xc6, 0xc0, 0x0f, 0xcb, 0x14, 0x14, 0x17, 0xe6, 0xd7, 0xc9, 0x0b,
  0xbd, 0x13, 0x14, 0x11, 0xe6, 0xed, 0xd2, 0xfb, 0xcf, 0x03, 0x02, 0x0c,
  0xfa, 0xea, 0xed, 0xfa, 0xf3, 0x06, 0x04, 0xf8, 0xf9, 0xf3, 0xe8, 0xf4,
  0x01, 0xfa, 0x07, 0xf1, 0xed, 0x08, 0xe0, 0xfc, 0xfa, 0x09, 0x0b, 0xec,
  0xfb, 0x06, 0xf0, 0xfc, 0xec, 0x10, 0xfd, 0xfe, 0xe7, 0xdc, 0xf9, 0xf8,
  0xed, 0x14, 0x15, 0xfa, 0xfa, 0xef, 0xdc, 0x07, 0xd4, 0xf8, 0xfc, 0x19,
  0x02, 0xde, 0xd3, 0xf8, 0xd2, 0xf5, 0xfd, 0x35, 0xf3, 0xed, 0xeb, 0xfc,
  0xe6, 0x0b, 0xff, 0x14, 0xfb, 0xec, 0xff, 0x03, 0xea, 0x14, 0xfa, 0x1f,
  0xfb, 0xe1, 0xf8, 0xf7, 0xe1, 0x1c, 0x04, 0x27, 0xfa, 0xd7, 0xe2, 0x08,
  0xd6, 0x11, 0x1b, 0x1e, 0x05, 0xdb, 0xd0, 0x0f, 0xc7, 0xfe, 0x0f, 0x10,
  0xfb, 0xe9, 0xd2, 0x02, 0xce, 0x0c, 0x10, 0x24, 0xf5, 0xed, 0xd1, 0x03,
  0xed, 0xf9, 0x06, 0x0a, 0xe7, 0xf3, 0xf1, 0xf7, 0xfb, 0x0c, 0x06, 0xf6,
  0xfb, 0x04, 0xef, 0xf6, 0x08, 0x0a, 0x19, 0xf0, 0xe4, 0xfb, 0xf6, 0xfe,
  0xfb, 0x16, 0x00, 0xed, 0xf2, 0x09, 0xe8, 0xf9, 0xfa, 0x02, 0x02, 0xe6,
  0xfc, 0xf2, 0x07, 0xf3, 0xdf, 0x17, 0x14, 0x0b, 0x22, 0xf1, 0x13, 0xec,
  0xf4, 0xf4, 0x0e, 0x13, 0x44, 0xeb, 0x2f, 0xec, 0x20, 0xf5, 0xfb, 0x11,
  0x1b, 0x01, 0x49, 0xfa, 0x37, 0xe8, 0xed, 0x0c, 0x28, 0x06, 0x4e, 0xe1,
  0x52, 0x09, 0xfd, 0x0d, 0x1e, 0xe8, 0x30, 0xf2, 0x2a, 0x0a, 0x0b, 0x18,
  0x40, 0xec, 0x36, 0xf9, 0x13, 0xfa, 0x15, 0x13, 0x2b, 0xfa, 0x0c, 0x0d,
  0x05, 0xfc, 0x04, 0x03, 0x19, 0xf1, 0x05, 0x04, 0x03, 0xf9, 0xf3, 0x15,
  0xf7, 0xf3, 0xf7, 0xfb, 0x00, 0x0e, 0xfe, 0x09, 0xf8, 0xf8, 0x0a, 0xf5,
  0x0f, 0x01, 0xfd, 0xe9, 0xf7, 0xf6, 0xee, 0xfd, 0xfe, 0x05, 0x1b, 0xe3,
  0xe9, 0xfa, 0xe7, 0xfd, 0xf4, 0x14, 0xff, 0xef, 0xf4, 0x09, 0x01, 0x05,
  0xf8, 0x1b, 0x02, 0xec, 0x0b, 0xec, 0x1d, 0xe6, 0x19, 0x02, 0x02, 0xf6,
  0x2b, 0xf5, 0x3d, 0xf5, 0x47, 0x12, 0xf0, 0x04, 0x40, 0x11, 0x5a, 0xe7,
  0x50, 0xf8, 0x0b, 0x00, 0x30, 0x0a, 0x58, 0xe9, 0x5d, 0xff, 0xe9, 0xe9,
  0x37, 0x06, 0x55, 0xef, 0x50, 0x00, 0xf8, 0xe9, 0x2b, 0x14, 0x60, 0xe8,
  0x5d, 0x0a, 0x06, 0xe6, 0x64, 0x0e, 0x5f, 0xf0, 0x5a, 0xff, 0x18, 0xf1,
  0x5b, 0x0b, 0x66, 0xf6, 0x43, 0x00, 0xf9, 0xf9, 0x39, 0x05, 0x28, 0xee,
  0x25, 0xfc, 0xfe, 0xef, 0x0e, 0xf3, 0x17, 0x00, 0x26, 0x0b, 0x16, 0xf4,
  0xfc, 0x0c, 0x08, 0xed, 0x12, 0x12, 0x04, 0xdf, 0xf5, 0xf9, 0xf8, 0xf1,
  0x03, 0x07, 0x0e, 0xef, 0xf4, 0xef, 0xf2, 0x01, 0xf9, 0x1b, 0x08, 0xcc,
  0x0c, 0x10, 0x0c, 0xf8, 0x0d, 0x26, 0x19, 0xde, 0x0f, 0x06, 0x2f, 0xfe,
  0x31, 0x1b, 0x0b, 0xfe, 0x24, 0x20, 0x40, 0xf2, 0x3b, 0x25, 0x12, 0xee,
  0x3a, 0x17, 0x51, 0xe7, 0x45, 0x03, 0x15, 0xf2, 0x44, 0x12, 0x67, 0xfa,
  0x39, 0xf4, 0x00, 0xe7, 0x49, 0x12, 0x5e, 0xf1, 0x35, 0xf6, 0xf2, 0xec,
  0x22, 0x16, 0x58, 0xf4, 0x34, 0xfd, 0xf5, 0xda, 0x52, 0x2a, 0x72, 0xf6,
  0x4a, 0x03, 0x0d, 0xd2, 0x4a, 0x28, 0x72, 0xfe, 0x62, 0x22, 0x00, 0xd3,
  0x29, 0x1d, 0x47, 0xea, 0x44, 0x34, 0x1e, 0xd4, 0x31, 0x07, 0x31, 0xfb,
  0x18, 0x14, 0x28, 0xeb, 0x08, 0xfc, 0x11, 0xfa, 0x27, 0x0e, 0x0f, 0xf2,
  0x00, 0xfc, 0x19, 0x0b, 0x04, 0x05, 0x02, 0xe5, 0xee, 0xfc, 0xf5, 0xfc,
  0xfc, 0x15, 0x17, 0xd9, 0x03, 0x0c, 0x11, 0xf7, 0x0f, 0x18, 0x18, 0xeb,
  0x01, 0x0c, 0x13, 0xf7, 0x24, 0x18, 0x18, 0xe1, 0x13, 0x0d, 0x28, 0xe0,
  0x2c, 0x1a, 0x20, 0xe7, 0x39, 0x08, 0x36, 0xf6, 0x36, 0xfc, 0x17, 0xf4,
  0x2b, 0x2d, 0x35, 0xe8, 0x25, 0xf2, 0xeb, 0xec, 0x37, 0x1a, 0x34, 0xf9,
  0x09, 0xe9, 0xec, 0xf3, 0x15, 0x32, 0x4d, 0xeb, 0x2c, 0xd8, 0xe8, 0xde,
  0x18, 0x16, 0x45, 0xe4, 0x2d, 0x0d, 0x07, 0xe6, 0x30, 0x1c, 0x34, 0xef,
  0x23, 0x16, 0x04, 0xf0, 0x13, 0x0f, 0x18, 0xf1, 0x1c, 0x24, 0x17, 0xe6,
  0x0c, 0x02, 0x19, 0xed, 0x28, 0x2c, 0x1a, 0xdd, 0x0a, 0x01, 0x20, 0xed,
  0x1c, 0x19, 0x13, 0xf6, 0xf8, 0x0f, 0xfa, 0x04, 0x05, 0xfa, 0x1a, 0xdc,
  0x04, 0xfb, 0xeb, 0x01, 0x0d, 0x10, 0x1a, 0xe7, 0xfb, 0xfe, 0xf9, 0xf8,
  0x00, 0x09, 0x09, 0xfd, 0x03, 0x06, 0x15, 0xfd, 0x1a, 0x16, 0x12, 0x04,
  0x03, 0x0e, 0x10, 0xf3, 0x1c, 0x04, 0x11, 0x01, 0x24, 0x06, 0x21, 0xfc,
  0x25, 0xeb, 0x03, 0xf5, 0x2a, 0x2a, 0x18, 0x00, 0x1b, 0xcd, 0xf5, 0xf6,
  0x2e, 0x13, 0x16, 0xed, 0x13, 0xcc, 0xec, 0xfe, 0x2c, 0x16, 0x26, 0x09,
  0x14, 0xbd, 0xd3, 0xfa, 0x16, 0x28, 0x25, 0x00, 0x07, 0xd4, 0xee, 0xfa,
  0x1f, 0x0e, 0x16, 0xf9, 0x10, 0x02, 0xfd, 0xfa, 0x1f, 0x19, 0x00, 0xf6,
  0x23, 0x1b, 0x03, 0xfa, 0xf7, 0x19, 0x11, 0x01, 0x21, 0x1d, 0x0e, 0xef,
  0x0d, 0x0b, 0x10, 0xf5, 0x17, 0x05, 0x0e, 0xec, 0xf6, 0xfd, 0xf4, 0xfe,
  0x0a, 0xee, 0x0f, 0xe0, 0x05, 0xef, 0xf7, 0x0e, 0x07, 0x04, 0x03, 0xeb,
  0x01, 0x1a, 0xff, 0xf3, 0xff, 0x1e, 0x14, 0xf9, 0xf5, 0x03, 0x0e, 0x02,
  0x1b, 0xfd, 0x0b, 0xf9, 0x0c, 0x16, 0x12, 0xfc, 0x14, 0xf7, 0xfc, 0x06,
  0x23, 0x16, 0x1a, 0xe5, 0x16, 0xe7, 0xfe, 0xef, 0x17, 0x16, 0x26, 0xf1,
  0x29, 0xdb, 0x02, 0xf9, 0x2d, 0x18, 0x10, 0x03, 0x10, 0xb2, 0xea, 0xf3,
  0x27, 0x1a, 0x25, 0x07, 0x0e, 0xca, 0xe0, 0x04, 0x1a, 0x18, 0x1b, 0xf8,
  0x15, 0xe1, 0xd4, 0xfc, 0x17, 0x19, 0xfc, 0xf8, 0x0e, 0xe3, 0xe5, 0xfd,
  0x14, 0x12, 0x08, 0xfa, 0x1f, 0xef, 0xfb, 0x08, 0x0d, 0xfa, 0x0e, 0xec,
  0x26, 0x0f, 0xfa, 0x04, 0xf9, 0xfd, 0x0c, 0xfe, 0x18, 0x09, 0x0b, 0x04,
  0xfd, 0x0a, 0x03, 0xfa, 0x0f, 0x0d, 0x0b, 0xfa, 0x09, 0xff, 0xfa, 0xf9,
  0xfc, 0x0a, 0xfd, 0xde, 0xf6, 0x19, 0x05, 0xf2, 0x07, 0x07, 0xfd, 0xf0,
  0xf3, 0x0a, 0x12, 0xed, 0x1e, 0xfe, 0x06, 0x07, 0xee, 0x06, 0xff, 0xf8,
  0x15, 0xf0, 0xff, 0x1a, 0x0f, 0x21, 0x04, 0xee, 0x0f, 0xf7, 0xfe, 0x1b,
  0x22, 0x0f, 0xfb, 0xe9, 0x30, 0xd0, 0xf9, 0x19, 0x1a, 0x18, 0xfc, 0xfc,
  0x27, 0xd0, 0xd7, 0x16, 0x19, 0x1d, 0x11, 0x01, 0x29, 0xd6, 0xd2, 0x12,
  0x0e, 0x23, 0x01, 0x03, 0x1a, 0xc4, 0xd1, 0x18, 0xff, 0x06, 0xf2, 0xf4,
  0x14, 0xe8, 0xf6, 0x24, 0xf1, 0x03, 0x01, 0xef, 0x12, 0xfd, 0x0c, 0x1d,
  0xf9, 0x0c, 0xfa, 0x00, 0x0d, 0x07, 0x04, 0x13, 0xe4, 0xef, 0x05, 0xfc,
  0x1f, 0xf5, 0x1a, 0x10, 0xe5, 0xe5, 0xf9, 0x04, 0x11, 0xf9, 0x07, 0xf5,
  0x00, 0xed, 0xf0, 0xf3, 0x03, 0x0b, 0x06, 0x05, 0xf8, 0x09, 0xf8, 0x05,
  0xff, 0xeb, 0x06, 0x08, 0x03, 0x0c, 0xf9, 0x03, 0x0b, 0x07, 0x0d, 0x14,
  0x03, 0x09, 0xef, 0xfb, 0x0c, 0x02, 0x0c, 0x1e, 0x0f, 0x0d, 0x15, 0xec,
  0x14, 0xf7, 0xff, 0x25, 0x06, 0x17, 0x06, 0xf5, 0x1e, 0xd9, 0xec, 0x33,
  0x09, 0x20, 0xf4, 0xf1, 0x1f, 0xd2, 0xed, 0x37, 0xfa, 0x1e, 0x06, 0xf9,
  0x2c, 0xdc, 0xe9, 0x23, 0x11, 0x06, 0x02, 0xfc, 0x0e, 0xe4, 0xeb, 0x34,
  0x06, 0xfa, 0xfa, 0xf5, 0x0a, 0xf2, 0xe4, 0x13, 0xfb, 0x0e, 0xfe, 0xf4,
  0x07, 0x0d, 0x07, 0x20, 0xea, 0x08, 0x02, 0xf9, 0x00, 0x11, 0x09, 0x12,
  0xda, 0xf9, 0xee, 0xf4, 0x08, 0x08, 0xfe, 0x1c, 0xeb, 0xef, 0xfc, 0xf8,
  0x08, 0xf9, 0x06, 0xfd, 0xff, 0xe4, 0x17, 0xfc, 0x07, 0x0b, 0x11, 0xf8,
  0x08, 0xf3, 0xed, 0xfc, 0x13, 0x0c, 0x0a, 0xf9, 0xfd, 0xfc, 0xf3, 0x01,
  0xf9, 0x14, 0x0d, 0xfd, 0xe5, 0xf6, 0xe4, 0xff, 0x02, 0x0d, 0xfb, 0x0b,
  0xe5, 0xfe, 0xea, 0xf8, 0x0d, 0x11, 0xfe, 0x15, 0xf5, 0x00, 0xd4, 0x0b,
  0x12, 0xf3, 0xf8, 0x03, 0xdf, 0x0d, 0xda, 0xf7, 0x09, 0xf2, 0xfd, 0x0f,
  0xe3, 0xf6, 0xeb, 0xfa, 0x03, 0x0c, 0x06, 0x08, 0xe8, 0x09, 0x00, 0x07,
  0xed, 0x10, 0x10, 0x06, 0xde, 0xfe, 0xee, 0xf5, 0xe7, 0x0e, 0x01, 0x09,
  0xef, 0xfd, 0xf9, 0xf8, 0xf5, 0x12, 0xff, 0x0a, 0xd1, 0xfa, 0x0f, 0x05,
  0xe6, 0x00, 0xf7, 0x0b, 0xe6, 0xfe, 0x1a, 0x03, 0xfb, 0x1c, 0xfc, 0xf1,
  0xff, 0xed, 0x11, 0xf6, 0x0a, 0x0c, 0x10, 0xfc, 0xfb, 0x00, 0x0f, 0xf4,
  0x0c, 0x15, 0x06, 0x01, 0x07, 0xf5, 0xfd, 0xff, 0x11, 0xfa, 0xfc, 0xf0,
  0x06, 0xee, 0xee, 0xfc, 0x14, 0xef, 0x0e, 0x08, 0xf6, 0xf4, 0xe3, 0xf6,
  0x0a, 0x0a, 0xf5, 0x09, 0xf1, 0x00, 0xed, 0xfd, 0x04, 0x02, 0xf9, 0x0d,
  0xfd, 0x10, 0xe5, 0xfc, 0x12, 0xfd, 0xfb, 0xf9, 0xf0, 0x14, 0xfb, 0xf5,
  0x0b, 0x02, 0x10, 0xfb, 0xe8, 0x0d, 0xec, 0x09, 0xf6, 0x08, 0x11, 0xf1,
  0xee, 0x0b, 0xed, 0x13, 0xfb, 0x0b, 0x13, 0xf7, 0xe9, 0x07, 0xf1, 0x11,
  0xeb, 0x00, 0xff, 0xff, 0xe9, 0x01, 0x09, 0xfd, 0xe8, 0xfc, 0xfe, 0xff,
  0xde, 0x06, 0xf7, 0x0c, 0xec, 0xfb, 0xf7, 0xfe, 0xe1, 0x05, 0x06, 0xf8,
  0xf5, 0xfd, 0xff, 0x0f, 0xfb, 0x08, 0x13, 0xf7, 0x0c, 0xfd, 0xf7, 0x0d,
  0xff, 0x0c, 0x0d, 0xf8, 0x22, 0x0b, 0x07, 0x16, 0xff, 0x09, 0xfd, 0x11,
  0x00, 0x03, 0x07, 0x16, 0x07, 0xfc, 0x02, 0x0c, 0x1f, 0xee, 0xef, 0x05,
  0x0b, 0xfa, 0xfe, 0x09, 0x15, 0xf7, 0x07, 0x09, 0x0f, 0x12, 0x19, 0xef,
  0x32, 0xe9, 0xff, 0xff, 0x24, 0x26, 0x15, 0x04, 0x4a, 0xfc, 0x03, 0xfd,
  0x0b, 0x21, 0x06, 0x10, 0x3a, 0xfa, 0xfd, 0xfd, 0x11, 0x33, 0x19, 0x08,
  0x1d, 0x03, 0xf1, 0xf3, 0x05, 0x18, 0x13, 0x0e, 0x1c, 0xe6, 0xf5, 0x00,
  0xe6, 0x1a, 0x0b, 0x06, 0x14, 0xe3, 0xfd, 0xf1, 0xe1, 0x08, 0x03, 0xf9,
  0x08, 0xf1, 0xf7, 0xff, 0xf5, 0x03, 0xfe, 0x07, 0xf9, 0xf1, 0xf4, 0x12,
  0xeb, 0x06, 0x0c, 0xfc, 0xfa, 0x06, 0xef, 0x21, 0xee, 0xff, 0xfc, 0xf5,
  0x07, 0xff, 0x08, 0x1b, 0x04, 0xfd, 0x19, 0x0c, 0x10, 0xf1, 0xf9, 0x25,
  0x13, 0xff, 0x01, 0xf3, 0x29, 0xfe, 0xf3, 0x09, 0x10, 0x01, 0x18, 0xef,
  0x2c, 0xfc, 0xf5, 0x1a, 0x0e, 0x0b, 0x1e, 0xf1, 0x41, 0xe6, 0xed, 0x08,
  0x09, 0x14, 0x27, 0xf7, 0x4d, 0xf0, 0x00, 0x03, 0x01, 0x1e, 0x0d, 0xff,
  0x36, 0xf7, 0x00, 0x15, 0xfd, 0x1e, 0xfd, 0x14, 0x2e, 0x01, 0xf6, 0xf9,
  0x01, 0x32, 0x0b, 0x09, 0x34, 0xef, 0xe8, 0x0e, 0xf7, 0x2e, 0x34, 0xf9,
  0x3b, 0xdf, 0xf9, 0xf7, 0xf6, 0x03, 0x2c, 0xf9, 0x40, 0xf0, 0xe7, 0x05,
  0xf2, 0x0b, 0x31, 0x0b, 0x23, 0x01, 0x06, 0xfd, 0xfc, 0xfa, 0x17, 0xfd,
  0x06, 0x0d, 0xf6, 0x15, 0xfd, 0x06, 0x1c, 0xf9, 0x01, 0x02, 0x05, 0x29,
  0xec, 0x05, 0x0e, 0x0f, 0x25, 0xff, 0xfb, 0x15, 0x03, 0x10, 0x17, 0xf5,
  0x2b, 0xfb, 0x05, 0x25, 0x04, 0x03, 0x14, 0xf3, 0x30, 0xec, 0x00, 0x17,
  0xeb, 0x0b, 0x21, 0xfe, 0x38, 0xfc, 0x06, 0x05, 0x00, 0x16, 0x2e, 0x04,
  0x52, 0xf3, 0x01, 0x01, 0x08, 0x01, 0x1c, 0x00, 0x61, 0xeb, 0xf3, 0xed,
  0x21, 0x0b, 0x05, 0xfa, 0x39, 0xfc, 0xf3, 0xfb, 0x19, 0x24, 0xf4, 0x0d,
  0x0c, 0xe2, 0xf5, 0x0c, 0x09, 0x29, 0x09, 0x0c, 0x2b, 0xec, 0xf1, 0x0c,
  0x00, 0x25, 0x26, 0x05, 0x45, 0xf4, 0xed, 0xfb, 0xf7, 0x17, 0x43, 0x07,
  0x4d, 0x04, 0xfc, 0x06, 0x01, 0x11, 0x35, 0x05, 0x2f, 0xff, 0xea, 0xf8,
  0xf5, 0x00, 0x1f, 0x06, 0x0f, 0xfd, 0xfb, 0x14, 0xfd, 0xf6, 0x1b, 0x02,
  0x12, 0xf0, 0x00, 0x17, 0x06, 0x0b, 0x0a, 0x08, 0x0b, 0xfc, 0x00, 0x34,
  0x1c, 0x0f, 0x23, 0x05, 0x2c, 0xee, 0x11, 0x2f, 0xf3, 0x09, 0x01, 0xf2,
  0x2a, 0xf9, 0xfd, 0x23, 0xe6, 0x0a, 0x18, 0xf1, 0x3d, 0xfd, 0xe7, 0x07,
  0xee, 0x13, 0x34, 0xfa, 0x3c, 0xef, 0x05, 0xf4, 0xfe, 0x0c, 0x1d, 0x00,
  0x37, 0x0b, 0xfc, 0xef, 0x00, 0x14, 0x14, 0x04, 0x08, 0xfa, 0x0a, 0xff,
  0x02, 0x08, 0x02, 0x15, 0xfd, 0xf7, 0xf7, 0x06, 0x02, 0x0d, 0x04, 0x10,
  0x26, 0xef, 0xfb, 0x0c, 0xe2, 0x1e, 0x30, 0x0b, 0x3c, 0xf3, 0xf7, 0x12,
  0xf1, 0x1f, 0x34, 0x09, 0x4d, 0xff, 0x04, 0x0a, 0xfd, 0x0a, 0x37, 0xfc,
  0x25, 0x00, 0xfc, 0x03, 0xea, 0xf9, 0x0a, 0x02, 0x1a, 0x04, 0x02, 0x0d,
  0xeb, 0xf1, 0x0c, 0x0c, 0x05, 0xff, 0x09, 0x1b, 0x09, 0x09, 0x1c, 0x02,
  0x26, 0xee, 0xf8, 0x27, 0x12, 0x08, 0x33, 0xf8, 0x28, 0xeb, 0x06, 0x2b,
  0x04, 0xf1, 0x09, 0xf7, 0x1c, 0xe5, 0xf2, 0x28, 0xed, 0xf1, 0x0e, 0x01,
  0x10, 0xf1, 0xf8, 0x12, 0xee, 0x05, 0xfe, 0x08, 0x0b, 0xee, 0x03, 0xfb,
  0xcb, 0xf8, 0xf9, 0x08, 0xe4, 0xfc, 0xfa, 0xf4, 0xd8, 0xea, 0xd2, 0x17,
  0xd6, 0xf8, 0x11, 0x0a, 0xce, 0x01, 0xcc, 0x04, 0xba, 0xf1, 0x02, 0x08,
  0xe3, 0x01, 0xd4, 0x05, 0xd5, 0xfe, 0x08, 0x07, 0xcf, 0x01, 0xe5, 0x09,
  0xe9, 0xf2, 0x03, 0x0d, 0xbd, 0x0f, 0xf2, 0x06, 0xf5, 0xff, 0xfb, 0x0d,
  0xc0, 0xf8, 0xfe, 0x03, 0xfa, 0x08, 0x00, 0x0d, 0xf9, 0xf6, 0xf6, 0x13,
  0xeb, 0xf5, 0x02, 0x16, 0x02, 0xfa, 0xf8, 0xff, 0x04, 0xe5, 0xf7, 0x1d,
  0x08, 0xf2, 0x08, 0xfa, 0x24, 0xf1, 0xf6, 0x29, 0x0d, 0xfa, 0x38, 0xf0,
  0x21, 0xff, 0x0a, 0x36, 0xec, 0xfb, 0x07, 0xf1, 0xfb, 0xe8, 0xfe, 0x10,
  0xd0, 0xe4, 0xd9, 0x00, 0xcb, 0xe5, 0xf7, 0x09, 0xcb, 0xfb, 0xdb, 0x16,
  0xbe, 0xf1, 0x02, 0xfb, 0xb8, 0xe1, 0xc8, 0x16, 0xad, 0xe5, 0x0a, 0xf4,
  0xc4, 0xd2, 0xb7, 0x0b, 0xb5, 0xed, 0xf9, 0xee, 0xd4, 0xed, 0xbf, 0x05,
  0xb3, 0xeb, 0x0a, 0xee, 0xe4, 0xde, 0xcd, 0x0d, 0xad, 0xde, 0xff, 0xfa,
  0xc3, 0xed, 0xc2, 0x21, 0xbd, 0xf6, 0xf1, 0x08, 0xb2, 0xe4, 0xa8, 0x23,
  0xa7, 0x05, 0xfc, 0xf5, 0xaa, 0xf4, 0xcf, 0x13, 0xba, 0xf8, 0xf3, 0xf1,
  0xc7, 0xfd, 0xf4, 0x05, 0xe8, 0xe5, 0xec, 0x0c, 0xf6, 0xde, 0xfc, 0x12,
  0xf4, 0xf2, 0x06, 0xfe, 0x07, 0xfa, 0x1c, 0xfd, 0x1e, 0xe7, 0xeb, 0x33,
  0x20, 0xed, 0x25, 0x01, 0x16, 0xfe, 0x0b, 0x21, 0xfb, 0xf3, 0x0f, 0x04,
  0xff, 0xee, 0xf8, 0x05, 0xf1, 0xed, 0xde, 0xfe, 0xc3, 0xec, 0xf4, 0x0a,
  0xd4, 0xef, 0xc9, 0x19, 0xa0, 0xdd, 0x00, 0xf5, 0xbf, 0xdc, 0xbf, 0x0e,
  0x9f, 0xf4, 0xe9, 0xf6, 0xbb, 0xe7, 0xcf, 0x0a, 0xbe, 0xf1, 0x01, 0xe7,
  0xc9, 0xf1, 0xd9, 0x04, 0xde, 0xf2, 0xfa, 0xe1, 0xed, 0xe1, 0xd3, 0x14,
  0xcd, 0xf8, 0x0b, 0xf5, 0xc8, 0xd0, 0xc7, 0x0a, 0xc4, 0xf1, 0x11, 0xef,
  0xb5, 0xe4, 0xbf, 0x1c, 0xa5, 0xe0, 0x02, 0xfa, 0xca, 0xea, 0xbb, 0x05,
  0xba, 0xd2, 0xf3, 0xef, 0xe0, 0xdb, 0xdc, 0x0e, 0xcd, 0xdd, 0xf4, 0xf8,
  0xf6, 0xea, 0xf9, 0x02, 0xfd, 0xeb, 0xf1, 0x09, 0x09, 0xfd, 0x10, 0xfa,
  0x1c, 0xdf, 0xee, 0x23, 0x10, 0x00, 0x2f, 0xf3, 0x17, 0xee, 0xf8, 0x19,
  0x04, 0xf3, 0x06, 0x03, 0x10, 0xe8, 0xfe, 0x0c, 0xf3, 0xe6, 0xf7, 0x06,
  0xe1, 0xd8, 0xfd, 0xee, 0xda, 0xe3, 0xe9, 0x1b, 0xd0, 0xd2, 0xfc, 0xe8,
  0xd6, 0xff, 0xd3, 0x07, 0xd9, 0xfc, 0xfe, 0xd8, 0xdc, 0xeb, 0xed, 0x0c,
  0xe5, 0x03, 0xf4, 0xcb, 0xcf, 0xf5, 0xe1, 0x01, 0xf1, 0x1c, 0x00, 0xd2,
  0xd7, 0xe0, 0xd3, 0x00, 0xf3, 0x1f, 0x1a, 0xe3, 0xd6, 0xd3, 0xd5, 0x14,
  0xe4, 0x05, 0x1e, 0xf8, 0xdb, 0xd7, 0xd4, 0x10, 0xe3, 0xfa, 0x0a, 0xfd,
  0xc1, 0xd4, 0xe7, 0x11, 0xbc, 0xd3, 0xfc, 0xec, 0xe3, 0xeb, 0xfe, 0x04,
  0xdb, 0xdb, 0xee, 0x03, 0xea, 0xf7, 0x16, 0xfe, 0xf7, 0xed, 0xf3, 0xfe,
  0x01, 0xf1, 0x26, 0xff, 0x23, 0xe7, 0xe7, 0x23, 0x16, 0x04, 0x3a, 0xea,
  0x13, 0xf3, 0xe8, 0x16, 0xfe, 0xf2, 0x1f, 0x0b, 0xfc, 0xe6, 0xf1, 0x0c,
  0xfd, 0xe7, 0x07, 0xfa, 0xe4, 0xd0, 0x00, 0xed, 0xe9, 0xf4, 0xed, 0x07,
  0xda, 0xdc, 0xf9, 0xe0, 0xda, 0xee, 0xfc, 0x0e, 0xf6, 0x08, 0xfc, 0xda,
  0xe2, 0xef, 0x0c, 0x03, 0x0f, 0x20, 0x06, 0xc2, 0xbd, 0xe2, 0x0a, 0xff,
  0x0f, 0x47, 0x26, 0xc0, 0xd0, 0xdb, 0xfe, 0x0c, 0x0c, 0x39, 0x3d, 0xc9,
  0xeb, 0xc6, 0xd3, 0x19, 0xe5, 0x33, 0x20, 0xd7, 0xe5, 0xed, 0xe7, 0x01,
  0xe5, 0x10, 0x25, 0xe5, 0xe1, 0xef, 0xeb, 0x1b, 0xdf, 0xe1, 0x03, 0xe5,
  0xef, 0xf7, 0x07, 0xff, 0xfa, 0xcd, 0xe3, 0xeb, 0x00, 0xe8, 0x07, 0x00,
  0x01, 0xd9, 0xed, 0xfe, 0x0c, 0xf4, 0x27, 0xf7, 0x20, 0x04, 0xfc, 0x06,
  0x21, 0x00, 0x28, 0x00, 0x18, 0xed, 0x00, 0x08, 0x11, 0xf0, 0x27, 0x03,
  0x19, 0xfc, 0x06, 0xfe, 0xff, 0xe7, 0x00, 0x07, 0x01, 0xed, 0xe8, 0xe1,
  0xfb, 0xe4, 0x04, 0x16, 0xe4, 0xe6, 0xec, 0xde, 0xe9, 0xed, 0xf8, 0x0f,
  0xed, 0xfa, 0xfd, 0xcf, 0xd8, 0xef, 0x01, 0x19, 0xda, 0x28, 0x0c, 0xb9,
  0xc1, 0xdf, 0xf8, 0x00, 0xe4, 0x41, 0x2a, 0xcd, 0xc5, 0xd6, 0xe1, 0x14,
  0xdf, 0x43, 0x38, 0xbb, 0xf5, 0xdd, 0xea, 0x04, 0xda, 0x3c, 0x26, 0xc2,
  0xde, 0xdf, 0xf2, 0x06, 0xe8, 0x0d, 0x13, 0xd8, 0xe9, 0xee, 0x0a, 0x13,
  0xfb, 0xfa, 0x06, 0xd2, 0x01, 0xe4, 0x0f, 0x13, 0xf3, 0xf4, 0xfc, 0xf6,
  0x0a, 0xf6, 0x1b, 0xff, 0x0c, 0xec, 0xfe, 0xfe, 0x0e, 0xf1, 0x24, 0x09,
  0x0f, 0xfc, 0xea, 0x0b, 0x11, 0x04, 0x36, 0xfa, 0x13, 0x06, 0xf2, 0x06,
  0x17, 0xf3, 0x1e, 0xfb, 0x18, 0xf9, 0xf8, 0xfa, 0xfe, 0xe2, 0x1c, 0x06,
  0xfd, 0xee, 0xfd, 0xf3, 0x0b, 0xe8, 0x0e, 0x10, 0xf0, 0xfe, 0xff, 0xe0,
  0xee, 0xee, 0xf1, 0x0f, 0xe7, 0x0c, 0x00, 0xcd, 0xd5, 0xe9, 0xea, 0x06,
  0xd7, 0x1e, 0x16, 0xb3, 0xd9, 0xc1, 0xe0, 0x06, 0xd2, 0x44, 0x1f, 0xb3,
  0xc4, 0xd7, 0xe5, 0x08, 0xd7, 0x31, 0x24, 0xca, 0xc6, 0xd2, 0xfb, 0x0e,
  0xe1, 0x32, 0x3a, 0xd0, 0xd7, 0xcd, 0x08, 0xff, 0xef, 0x0e, 0x0b, 0xc5,
  0xfb, 0xe0, 0x19, 0x06, 0x03, 0xfd, 0x01, 0xea, 0xf6, 0xec, 0x19, 0x02,
  0x05, 0xf1, 0x0c, 0xea, 0xff, 0xf2, 0x20, 0x0e, 0x09, 0xee, 0xf3, 0xfa,
  0x0d, 0xf6, 0x20, 0x05, 0x0c, 0x07, 0x05, 0x0e, 0x0f, 0xfe, 0x33, 0x05,
  0x1e, 0x06, 0x0e, 0xf8, 0xf8, 0x02, 0x30, 0x02, 0x25, 0x09, 0xf5, 0xf9,
  0x09, 0xec, 0x0c, 0xff, 0xff, 0xf9, 0xf8, 0xd6, 0xf0, 0xd9, 0xfb, 0x11,
  0x10, 0xfe, 0xf5, 0xd7, 0xe9, 0xd2, 0x01, 0x05, 0xe5, 0xfb, 0xff, 0xba,
  0xd3, 0xda, 0xec, 0x05, 0xdf, 0x0d, 0xff, 0xaa, 0xcb, 0xd0, 0xe0, 0x09,
  0xe6, 0x13, 0x24, 0xc1, 0xbc, 0xbe, 0xcf, 0x19, 0xd1, 0x27, 0x1e, 0xc9,
  0xd4, 0xc3, 0xe9, 0x0d, 0xe1, 0x13, 0x11, 0xbe, 0xd3, 0xd3, 0x11, 0xf9,
  0xe5, 0x00, 0x18, 0xd0, 0xed, 0xcd, 0x0d, 0x08, 0xfa, 0xf8, 0x12, 0xe3,
  0xf3, 0xe2, 0x04, 0xfa, 0x12, 0xf4, 0x08, 0xf7, 0x0d, 0xec, 0x1a, 0xfa,
  0x1a, 0xf5, 0x07, 0x1a, 0x1c, 0xf4, 0x26, 0x12, 0x1b, 0xfd, 0x02, 0x13,
  0x07, 0x00, 0xfa, 0x03, 0xf2, 0x00, 0x0b, 0xf2, 0x03, 0x00, 0x07, 0xf7,
  0x07, 0x06, 0xf9, 0x0e, 0xfa, 0xf9, 0x03, 0x0d, 0x0d, 0xf2, 0xf9, 0xf3,
  0xf7, 0x01, 0xf2, 0xf7, 0xf5, 0xf2, 0x07, 0x0b, 0x04, 0xf4, 0xf5, 0xff,
  0xf7, 0xf3, 0x00, 0x0e, 0xfd, 0x05, 0x04, 0xfe, 0x0d, 0xf5, 0xfc, 0x04,
  0xf3, 0x01, 0x03, 0xfc, 0xf2, 0x00, 0x05, 0x03, 0xf4, 0xf4, 0x04, 0xfb,
  0xfb, 0xfd, 0x01, 0x0d, 0xf7, 0x0a, 0x06, 0xff, 0x08, 0xf9, 0x0b, 0xfb,
  0x0d, 0xfc, 0x03, 0x0c, 0x02, 0x00, 0xf4, 0xfe, 0x03, 0xf1, 0xf2, 0x00,
  0x0c, 0xfb, 0x08, 0xf5, 0x05, 0xf7, 0xfe, 0xf2, 0x02, 0xfe, 0xfe, 0x0e,
  0xfe, 0xf6, 0xf3, 0x0d, 0x06, 0xf2, 0xfb, 0x0c, 0x01, 0x05, 0x0a, 0xfc,
  0xfe, 0x0d, 0xff, 0xf3, 0x0d, 0x04, 0x05, 0xf7, 0x0d, 0xf8, 0x01, 0x0c,
  0x0d, 0xf3, 0x0c, 0x03, 0x00, 0x01, 0x06, 0xf3, 0xf9, 0x0d, 0xf6, 0x0a,
  0xfd, 0x02, 0xf6, 0xf9, 0x0d, 0xfd, 0xff, 0x09, 0xf3, 0xfa, 0xf9, 0x0f,
  0x0c, 0x02, 0xf3, 0x05, 0xfd, 0xf3, 0x0a, 0x01, 0x0a, 0x05, 0x02, 0x0a,
  0x09, 0x06, 0x01, 0x05, 0xf6, 0x08, 0x01, 0x01, 0x01, 0x00, 0xfb, 0x0c,
  0x07, 0xf8, 0x00, 0xfd, 0xf8, 0xfd, 0xf9, 0x0c, 0x04, 0x0d, 0x09, 0xfe,
  0xf7, 0xf6, 0x05, 0x00, 0x09, 0xf8, 0x08, 0x08, 0x09, 0xfa, 0x06, 0x03,
  0xf2, 0x0a, 0x08, 0x02, 0xf9, 0x05, 0x08, 0x01, 0x0a, 0x09, 0x0c, 0x0b,
  0xfb, 0x03, 0x05, 0x01, 0xf8, 0xf8, 0xfe, 0x07, 0xfb, 0x09, 0x01, 0xf8,
  0xf5, 0x06, 0x05, 0xfb, 0x03, 0xff, 0x04, 0xf4, 0x04, 0x04, 0xff, 0xf3,
  0xfc, 0x04, 0x0b, 0x04, 0x01, 0xf6, 0xfa, 0xfd, 0xf2, 0xf8, 0x03, 0xfa,
  0x01, 0x02, 0x00, 0xff, 0x08, 0xf9, 0x0d, 0x0d, 0x0d, 0x06, 0x07, 0x09,
  0x09, 0x0a, 0xfc, 0xf5, 0x0b, 0xfb, 0x03, 0xfa, 0x00, 0xf6, 0x0d, 0x0b,
  0xfc, 0xf9, 0xf1, 0x02, 0x08, 0xfd, 0xf2, 0x06, 0xf9, 0xf6, 0x03, 0xf4,
  0x0c, 0xf3, 0x07, 0xf8, 0x07, 0x09, 0x09, 0xf2, 0x03, 0xf8, 0xfc, 0xf3,
  0xfe, 0x00, 0xfc, 0xf6, 0xf8, 0xf4, 0xf2, 0xfb, 0xfe, 0xf2, 0x06, 0x03,
  0x0b, 0xff, 0xf3, 0xfd, 0xf9, 0x08, 0x04, 0xf4, 0xf8, 0x0c, 0x06, 0xfd,
  0x0b, 0xf8, 0x0a, 0xf6, 0xfa, 0x07, 0xfc, 0x0a, 0xff, 0x06, 0xf6, 0xf2,
  0xf9, 0x03, 0xf4, 0xf2, 0xf3, 0xfd, 0xf6, 0xf0, 0xfe, 0xf7, 0x0a, 0x01,
  0x09, 0xfb, 0xf5, 0x03, 0x09, 0xfb, 0x06, 0x04, 0x05, 0x0b, 0x05, 0x03,
  0xfa, 0x0c, 0xfc, 0x02, 0xfd, 0x07, 0xf4, 0xfa, 0xf5, 0x06, 0x00, 0xfd,
  0xf2, 0xfe, 0xf8, 0xf9, 0x04, 0xf9, 0xfc, 0x0d, 0xfa, 0xfd, 0xf3, 0xf8,
  0xf2, 0x00, 0xf6, 0x04, 0x0a, 0xff, 0xff, 0xf7, 0xf6, 0x0c, 0x0a, 0x03,
  0xf7, 0x00, 0xf5, 0x07, 0x04, 0x09, 0xfa, 0xf3, 0x06, 0xf5, 0xf5, 0xf3,
  0x04, 0xf8, 0xfd, 0x05, 0xf6, 0xf9, 0xfc, 0xfe, 0x09, 0xfe, 0xf0, 0xf7,
  0x0b, 0xf5, 0xf8, 0x00, 0x01, 0x09, 0xf2, 0xf3, 0xf7, 0x04, 0xf3, 0xf2,
  0x06, 0xfe, 0x0b, 0x03, 0x09, 0x07, 0xf7, 0x06, 0xff, 0xfc, 0x01, 0xf8,
  0xf2, 0xfa, 0x0c, 0xfc, 0x02, 0x0d, 0xfa, 0x0d, 0x0c, 0x02, 0x02, 0xfc,
  0xf9, 0xff, 0xf6, 0x07, 0x07, 0x0d, 0x01, 0xf9, 0xfa, 0x09, 0x04, 0x0c,
  0xfa, 0x04, 0xf7, 0xff, 0x0e, 0x02, 0xfa, 0x0a, 0xf3, 0x0b, 0x02, 0xf4,
  0xf8, 0xf4, 0xf5, 0xf6, 0x0b, 0x05, 0xf8, 0xf3, 0x05, 0x03, 0x04, 0x07,
  0x04, 0xf9, 0xf8, 0xf6, 0xfc, 0xf3, 0xf8, 0x03, 0x00, 0xf1, 0xfd, 0xf9,
  0xf2, 0x04, 0xf0, 0xf4, 0x05, 0x0a, 0xff, 0x02, 0x02, 0xf3, 0xf4, 0xff,
  0x0a, 0xf7, 0xf2, 0xf6, 0x00, 0x04, 0xf2, 0x06, 0x02, 0x03, 0x09, 0x09,
  0xf6, 0xf5, 0xfe, 0x0a, 0xfb, 0x08, 0x01, 0x0b, 0x07, 0xfb, 0xfa, 0x02,
  0x04, 0xf7, 0xf7, 0xf2, 0x07, 0xfd, 0xf9, 0x0a, 0x03, 0xf8, 0x08, 0x06,
  0xfe, 0xf7, 0xfe, 0x0f, 0xf9, 0xf9, 0x0c, 0xfb, 0x0a, 0xf3, 0xf1, 0x0a,
  0xf7, 0xf3, 0xfe, 0x09, 0xf8, 0x00, 0xf9, 0xfd, 0x03, 0xfc, 0xf1, 0xfc,
  0x0c, 0xf1, 0x05, 0xfc, 0xf9, 0xf2, 0x05, 0xf3, 0x06, 0xfd, 0xf8, 0xf4,
  0xff, 0xf5, 0xff, 0xff, 0x0c, 0x06, 0xff, 0x06, 0xf5, 0x09, 0x00, 0xfa,
  0xfa, 0x00, 0xfc, 0x02, 0xf7, 0x05, 0xf5, 0xfe, 0xf8, 0xf3, 0x05, 0xff,
  0x06, 0x08, 0xf7, 0xff, 0x02, 0xf8, 0x0d, 0xf2, 0x0b, 0x00, 0x03, 0xfe,
  0xf9, 0xf7, 0xfd, 0xf7, 0xf3, 0x07, 0x06, 0x0c, 0xf6, 0x08, 0xfb, 0x0d,
  0x08, 0xff, 0x00, 0xf6, 0x0b, 0x04, 0xf9, 0xfc, 0xfb, 0x01, 0x06, 0xf9,
  0xfb, 0x09, 0xfa, 0xf7, 0xf3, 0x00, 0xf1, 0xfd, 0x0b, 0xfb, 0xfb, 0x01,
  0x01, 0x0d, 0xf1, 0xfc, 0x09, 0xf3, 0xf2, 0xf2, 0x02, 0x03, 0x01, 0x05,
  0x0b, 0x04, 0xf8, 0xfc, 0xfb, 0x01, 0x04, 0xff, 0xf4, 0x06, 0x06, 0x00,
  0x03, 0xf3, 0x04, 0xfb, 0xf2, 0xf8, 0xfd, 0xf5, 0xf1, 0xfd, 0xfb, 0xf7,
  0xf3, 0xfe, 0x01, 0xf9, 0x0b, 0xfa, 0xfb, 0xfb, 0x03, 0x0c, 0x00, 0xfc,
  0xfe, 0x0a, 0xf7, 0x04, 0xfd, 0x0c, 0xf2, 0x01, 0xf1, 0xfc, 0xfe, 0x08,
  0x0e, 0x05, 0xf4, 0xfa, 0x03, 0x0c, 0x00, 0xf4, 0x0a, 0xfd, 0xff, 0xf2,
  0xf8, 0x02, 0x08, 0xf8, 0xfe, 0xf8, 0xf9, 0xf7, 0xff, 0xf6, 0x05, 0x08,
  0x06, 0xfe, 0xf7, 0xf6, 0x00, 0xf5, 0xfb, 0x0b, 0xf9, 0x04, 0x00, 0x00,
  0x07, 0xfe, 0x09, 0x04, 0x0e, 0x02, 0xf4, 0xf3, 0x01, 0x02, 0xf8, 0xf7,
  0x09, 0x00, 0xff, 0xfa, 0xf2, 0xfd, 0xfd, 0x0d, 0x08, 0xf9, 0x08, 0x0d,
  0xff, 0xfe, 0xff, 0xfd, 0x03, 0x0d, 0xf7, 0xfb, 0xfd, 0xf2, 0xfc, 0x0b,
  0x07, 0x02, 0xfa, 0xf2, 0x0c, 0x0b, 0x08, 0xf1, 0xfa, 0xff, 0xfd, 0xf3,
  0x01, 0xf5, 0x03, 0xfb, 0xf9, 0xfe, 0xf3, 0xf2, 0xfb, 0x09, 0xf7, 0xf1,
  0xf6, 0x0d, 0x05, 0x0d, 0x0a, 0x05, 0xfb, 0x08, 0xfe, 0x00, 0xf5, 0xfe,
  0x00, 0xf4, 0x0b, 0xfb, 0x06, 0x07, 0xf9, 0xf3, 0xfe, 0xfd, 0x07, 0xfb,
  0xf8, 0x05, 0x00, 0xf2, 0xf5, 0x04, 0x0d, 0xf7, 0x04, 0xfa, 0xfd, 0xf4,
  0xfc, 0xf2, 0x05, 0xf2, 0xf4, 0x09, 0xfc, 0x0a, 0xf1, 0x0b, 0xf3, 0xfc,
  0x0d, 0xf7, 0xf6, 0x00, 0xf6, 0x01, 0x0d, 0xf4, 0xfa, 0xf8, 0xfc, 0xf2,
  0x09, 0xfa, 0xfb, 0xf1, 0xfe, 0x0a, 0x03, 0xfb, 0xf6, 0x0c, 0xf2, 0x06,
  0x02, 0xf8, 0x0d, 0xf4, 0xf9, 0xfe, 0x03, 0x0a, 0xf5, 0xf6, 0x07, 0xff,
  0xf6, 0x03, 0x03, 0xf3, 0xfa, 0x0d, 0xf7, 0x07, 0xf5, 0xf6, 0xfe, 0xfe,
  0x0b, 0xf7, 0xf7, 0xf2, 0x08, 0x0e, 0x02, 0x01, 0xfe, 0x0b, 0x02, 0xf6,
  0x06, 0xfb, 0x0a, 0x01, 0xfc, 0x00, 0x0a, 0xf6, 0x0d, 0xfc, 0xfa, 0xf1,
  0x08, 0x02, 0xf0, 0x00, 0xff, 0x00, 0xf7, 0x05, 0xf3, 0x02, 0x06, 0x04,
  0xfd, 0x0d, 0xf8, 0x05, 0xf1, 0x07, 0xf8, 0xf5, 0x0b, 0xfd, 0x09, 0xff,
  0x04, 0x0c, 0xfa, 0x03, 0x07, 0x04, 0xff, 0x04, 0xfc, 0x03, 0x0b, 0xf2,
  0xf3, 0x0e, 0xf5, 0x01, 0xfb, 0xf2, 0xf6, 0xfc, 0x03, 0x00, 0x0a, 0xf8,
  0xf3, 0xf5, 0xff, 0x08, 0xf2, 0xf3, 0x02, 0xf4, 0xfc, 0xf6, 0xf8, 0xf8,
  0xfc, 0xfb, 0xff, 0x00, 0xfd, 0x05, 0xfc, 0xfc, 0x09, 0xf6, 0xf5, 0x05,
  0x07, 0x0c, 0xfc, 0x09, 0xf5, 0xf6, 0x0a, 0x06, 0x01, 0xfb, 0xfe, 0x0d,
  0xf7, 0xfa, 0x07, 0xfe, 0x07, 0x08, 0x03, 0x0d, 0xf4, 0xfd, 0x04, 0xff,
  0x09, 0x08, 0xfd, 0xf8, 0x00, 0x01, 0xff, 0x08, 0x0a, 0xf5, 0x0c, 0x0a,
  0x02, 0xf6, 0x07, 0x06, 0x04, 0xf9, 0xff, 0x03, 0xf4, 0xfb, 0xf6, 0x0d,
  0xf4, 0xf8, 0x07, 0xf8, 0x0d, 0xf2, 0xfc, 0xf4, 0xf4, 0xfd, 0xff, 0xf2,
  0xf9, 0xf3, 0xff, 0x07, 0x05, 0x0a, 0xf9, 0xfb, 0x0c, 0xf7, 0xfd, 0xf4,
  0x06, 0xf1, 0xf6, 0x0a, 0xf4, 0xf6, 0x01, 0xfa, 0x0a, 0xfc, 0x07, 0xfa,
  0x0b, 0x04, 0x0b, 0x00, 0xfe, 0xfc, 0xfa, 0xf9, 0xf9, 0xf4, 0xfa, 0xfc,
  0x02, 0x06, 0xfe, 0xf7, 0xf3, 0x03, 0x09, 0xfe, 0x05, 0x05, 0x07, 0x04,
  0xf5, 0x05, 0xf7, 0x0c, 0xff, 0xff, 0x05, 0x0a, 0xf1, 0x02, 0x09, 0xf4,
  0x0a, 0xfb, 0xf4, 0x0a, 0x0e, 0x00, 0xf2, 0x05, 0x0b, 0x0b, 0x0b, 0x0c,
  0x06, 0x00, 0x03, 0xf2, 0xf4, 0x04, 0xff, 0xfd, 0xff, 0xf9, 0xfd, 0x0d,
  0xf9, 0x00, 0xf5, 0x01, 0xf3, 0x0b, 0xfe, 0x03, 0xfd, 0x00, 0x08, 0xf5,
  0x06, 0x0a, 0x07, 0xfc, 0xf5, 0x00, 0x0d, 0xf2, 0x09, 0xfd, 0x0a, 0x05,
  0x0b, 0x06, 0xfe, 0x07, 0xfb, 0xf2, 0x0c, 0xff, 0x09, 0x0a, 0x03, 0xf8,
  0xf9, 0xf3, 0x0a, 0xfe, 0xf7, 0xfe, 0xf5, 0x0d, 0x0d, 0xf9, 0x02, 0xf4,
  0x0c, 0x06, 0x09, 0xff, 0x09, 0xf2, 0x0b, 0xfc, 0xfa, 0x04, 0xf8, 0xf6,
  0xfc, 0xf3, 0x08, 0xf4, 0xf5, 0x04, 0xf8, 0x00, 0xf3, 0xfb, 0x0c, 0xf5,
  0xf4, 0xf8, 0x0b, 0x0c, 0xf7, 0xf3, 0x0b, 0xfc, 0x09, 0x03, 0x0b, 0x04,
  0x01, 0x06, 0x00, 0x07, 0xfb, 0x04, 0x0c, 0xf8, 0x07, 0xfb, 0x05, 0x00,
  0x00, 0x08, 0x00, 0x03, 0x0a, 0x0d, 0x08, 0xfb, 0xf8, 0x0a, 0xf6, 0xf9,
  0xf3, 0x08, 0x06, 0xf5, 0xf8, 0xf4, 0x0c, 0x09, 0xfe, 0x02, 0x01, 0xff,
  0x07, 0x08, 0xf4, 0xf9, 0x08, 0xfa, 0xfc, 0xf2, 0x05, 0xf4, 0xf1, 0x08,
  0x02, 0xfa, 0xfe, 0xf8, 0xfe, 0xff, 0x05, 0x00, 0x09, 0x04, 0xf8, 0xfb,
  0x0e, 0x0c, 0xf7, 0x01, 0x0d, 0x05, 0x05, 0xf5, 0x02, 0xf1, 0x04, 0x07,
  0xfe, 0x02, 0x09, 0xf2, 0xf8, 0x0a, 0xf2, 0xf5, 0x01, 0xf2, 0x0c, 0xfe,
  0x0e, 0xfe, 0x05, 0xff, 0xfb, 0x03, 0xf8, 0xf4, 0xf3, 0x00, 0x01, 0x00,
  0xfa, 0x00, 0x0d, 0xfb, 0xf3, 0xf3, 0xf0, 0xf8, 0xfa, 0x0c, 0xf2, 0x03,
  0x02, 0xf1, 0x08, 0x0e, 0xfe, 0x0a, 0x0c, 0xf4, 0x08, 0xf4, 0xfd, 0x02,
  0x06, 0xf1, 0xf8, 0x06, 0x01, 0x02, 0x02, 0xf7, 0x08, 0x06, 0xfd, 0x0a,
  0x00, 0x0c, 0x0c, 0x0e, 0x00, 0x02, 0x01, 0xfc, 0xf8, 0xf9, 0x04, 0x01,
  0xf2, 0xfb, 0x0b, 0xfc, 0x01, 0xf0, 0xf9, 0xfc, 0xf7, 0x0a, 0xfd, 0x06,
  0xf9, 0x0d, 0x09, 0x0e, 0xf6, 0xf4, 0xf6, 0xf5, 0x0a, 0x0a, 0x03, 0x00,
  0xf7, 0xf7, 0x0a, 0x03, 0x0b, 0x04, 0x05, 0x0c, 0x08, 0x0c, 0xf3, 0xfe,
  0xf2, 0x03, 0xff, 0xf8, 0xf1, 0xfd, 0x09, 0xf9, 0xf6, 0xfb, 0xf4, 0xf9,
  0xf6, 0x0d, 0xf2, 0xf8, 0xf3, 0xf1, 0x05, 0x04, 0x0a, 0x06, 0xf9, 0xf7,
  0x09, 0x06, 0x00, 0xf3, 0x08, 0x0c, 0xf9, 0x0c, 0x06, 0x00, 0x0a, 0xf5,
  0x02, 0x02, 0x02, 0x0c, 0x09, 0xfc, 0xf5, 0xff, 0xf3, 0xf5, 0x0d, 0x01,
  0xf8, 0xf4, 0xf8, 0x0d, 0x01, 0xff, 0x0b, 0x02, 0x09, 0xf9, 0x01, 0xfa,
  0xf4, 0xfc, 0x01, 0xf5, 0xfc, 0x0d, 0x08, 0x0c, 0xfc, 0xfd, 0xf7, 0xf4,
  0xf6, 0xf2, 0x04, 0x04, 0xf6, 0xf6, 0x06, 0xfd, 0x0d, 0xfc, 0x00, 0x05,
  0xff, 0xf7, 0x00, 0xfc, 0xf4, 0x09, 0x02, 0xf2, 0xfe, 0x0b, 0x00, 0xf7,
  0x00, 0xf3, 0xfd, 0x07, 0x01, 0xf4, 0xfb, 0x0a, 0xfb, 0x03, 0x06, 0x01,
  0xfd, 0x02, 0xf9, 0xff, 0xf7, 0x0a, 0xfb, 0xf3, 0x03, 0x04, 0xf8, 0xf3,
  0x06, 0x0c, 0xfa, 0x06, 0x01, 0xf4, 0x04, 0xf0, 0x0c, 0xfe, 0xf5, 0x0b,
  0xfb, 0xf3, 0xf7, 0xf9, 0x0b, 0x02, 0xfd, 0xfa, 0xf2, 0x08, 0xf5, 0xf1,
  0x0a, 0x08, 0x06, 0xf9, 0x03, 0x06, 0x03, 0xfb, 0x09, 0xf8, 0xf0, 0x09,
  0xf9, 0x09, 0x0a, 0xf7, 0xf9, 0x07, 0x08, 0xf9, 0x01, 0x01, 0x17, 0xf2,
  0x20, 0x0d, 0x06, 0xf4, 0xf9, 0xeb, 0xfa, 0x0f, 0x0f, 0x1c, 0x1c, 0x13,
  0xef, 0xed, 0xec, 0x00, 0x20, 0xff, 0xfb, 0xfd, 0xda, 0xef, 0xea, 0xf7,
  0x21, 0x13, 0xfb, 0x0c, 0xe6, 0x05, 0xe0, 0xf5, 0x21, 0xfa, 0x03, 0x0c,
  0xe9, 0x00, 0xd4, 0xf6, 0x23, 0x03, 0x09, 0x13, 0xe6, 0xfd, 0xe1, 0x05,
  0x17, 0xfd, 0x07, 0x03, 0xf2, 0x05, 0xe0, 0xf5, 0x12, 0xfb, 0xf1, 0x16,
  0xe4, 0x12, 0xf2, 0xf7, 0xfe, 0xfe, 0x0c, 0x0c, 0xe8, 0xf6, 0xe6, 0x12,
  0xf1, 0x08, 0x09, 0xff, 0xe6, 0x01, 0x00, 0x0b, 0xfd, 0x03, 0xff, 0x02,
  0xe6, 0x0f, 0xfe, 0xfc, 0xed, 0xfd, 0x06, 0x08, 0xf2, 0x06, 0x25, 0xf3,
  0x14, 0x11, 0x02, 0x00, 0xff, 0x0f, 0x21, 0xfb, 0x22, 0xfc, 0x05, 0x0b,
  0x02, 0xff, 0x14, 0xff, 0x27, 0xfc, 0xf6, 0x12, 0xee, 0xf8, 0xf5, 0x01,
  0x0a, 0x0d, 0xfb, 0x12, 0xe7, 0xfd, 0xed, 0x03, 0x23, 0xed, 0xf9, 0xfb,
  0xff, 0xf8, 0xe8, 0xfc, 0x0d, 0xf5, 0x10, 0x08, 0x08, 0x0f, 0xea, 0xf5,
  0x21, 0xf6, 0x08, 0x06, 0x05, 0x23, 0xf6, 0xfc, 0x2d, 0xf6, 0x00, 0x0f,
  0x0c, 0x26, 0xfd, 0x08, 0x13, 0xf6, 0xfb, 0x00, 0xef, 0x12, 0xef, 0xf4,
  0x21, 0x02, 0x04, 0x0d, 0xfe, 0x11, 0xe3, 0x08, 0xec, 0x11, 0x12, 0x0e,
  0xe8, 0x0b, 0xf7, 0xfe, 0xde, 0x01, 0xfc, 0xf8, 0xf4, 0x14, 0x06, 0x04,
  0xe8, 0xf9, 0x0f, 0xfa, 0xea, 0x09, 0x1c, 0x09, 0xe7, 0xed, 0x06, 0xf7,
  0xea, 0x09, 0x02, 0xfa, 0x05, 0x11, 0x06, 0x04, 0xfa, 0xff, 0x14, 0xed,
  0x0f, 0x04, 0x10, 0x0b, 0x0e, 0xf8, 0x03, 0xf9, 0x2b, 0x06, 0xfc, 0x17,
  0xee, 0x00, 0x0d, 0xf7, 0x24, 0x06, 0x0e, 0x15, 0x0a, 0xfd, 0x07, 0xfb,
  0x38, 0xf1, 0xfe, 0xfb, 0x1f, 0x07, 0xf9, 0x07, 0x2b, 0xef, 0xfc, 0x16,
  0x01, 0x18, 0x06, 0xf9, 0x3d, 0xf1, 0x01, 0x0f, 0x10, 0x27, 0x09, 0xf6,
  0x48, 0xfe, 0x08, 0x0a, 0x08, 0x1e, 0x00, 0x07, 0x30, 0xfd, 0xf6, 0x07,
  0x0e, 0x3a, 0xfe, 0x06, 0x2a, 0x07, 0xf8, 0x0a, 0x0c, 0x26, 0x00, 0x0f,
  0x13, 0xf7, 0xf8, 0xfc, 0xf9, 0x1f, 0xfd, 0xfa, 0x05, 0x02, 0xed, 0xf9,
  0xf2, 0x06, 0x09, 0xfd, 0xfc, 0x05, 0x00, 0x09, 0xfe, 0x0b, 0x19, 0x08,
  0xff, 0xf5, 0x0c, 0x06, 0xeb, 0x09, 0x08, 0x10, 0xfd, 0x07, 0xf1, 0x1c,
  0xf7, 0x12, 0x16, 0x03, 0x13, 0x06, 0x05, 0x19, 0x0f, 0x18, 0x16, 0x06,
  0x1f, 0x04, 0x0a, 0x22, 0xf9, 0xf0, 0x05, 0xf4, 0x1a, 0xf4, 0x02, 0x14,
  0x01, 0xff, 0x1c, 0x05, 0x38, 0xf1, 0xfb, 0x0b, 0x10, 0x0a, 0x27, 0xf7,
  0x4c, 0xfc, 0xfb, 0x18, 0x10, 0x20, 0x15, 0xf5, 0x41, 0x01, 0x0d, 0xf4,
  0x0c, 0x23, 0x12, 0x0d, 0x33, 0xfc, 0xf8, 0x0d, 0x00, 0x15, 0x06, 0x06,
  0x30, 0xfa, 0xf1, 0x11, 0xf2, 0x1b, 0x10, 0xfd, 0x2a, 0xf8, 0xec, 0xfa,
  0xf5, 0x25, 0x2c, 0x03, 0x3a, 0xe7, 0xf3, 0x00, 0xf8, 0x19, 0x28, 0x04,
  0x27, 0x07, 0xed, 0x03, 0xf8, 0x17, 0x21, 0xf6, 0x10, 0xf6, 0x03, 0x11,
  0xe9, 0x01, 0x1f, 0x0a, 0x07, 0x08, 0xf2, 0x1e, 0xfe, 0x08, 0x14, 0x06,
  0x1f, 0x04, 0x02, 0x16, 0x00, 0x09, 0x10, 0x0c, 0x0f, 0x00, 0x01, 0x0b,
  0x06, 0x05, 0x12, 0x09, 0x1f, 0x05, 0xf9, 0x1a, 0xfe, 0x0a, 0x15, 0x06,
  0x35, 0xf6, 0x04, 0x12, 0x01, 0x10, 0x20, 0xf8, 0x40, 0xf9, 0xfc, 0x04,
  0x10, 0x11, 0x18, 0x04, 0x4e, 0xf7, 0xff, 0x17, 0x0c, 0x0e, 0x1c, 0xfa,
  0x51, 0xfa, 0xef, 0x01, 0x1d, 0x21, 0x1b, 0x00, 0x35, 0xf7, 0xf1, 0xff,
  0x0e, 0x21, 0x09, 0xff, 0x1d, 0xea, 0xf0, 0x13, 0x02, 0x24, 0x13, 0x03,
  0x2c, 0xe9, 0xf2, 0x11, 0xf5, 0x34, 0x29, 0x02, 0x45, 0xe2, 0xf3, 0x03,
  0x08, 0x18, 0x3b, 0xff, 0x4b, 0xfe, 0xec, 0xf4, 0x04, 0x05, 0x29, 0xf9,
  0x36, 0xfb, 0x03, 0x0a, 0xfa, 0xfc, 0x21, 0xfb, 0x2d, 0x09, 0xf8, 0x15,
  0x04, 0xf2, 0x06, 0x02, 0x07, 0x02, 0xfd, 0x28, 0x08, 0x01, 0x15, 0xf7,
  0x1a, 0x0a, 0xf9, 0x28, 0x03, 0x0e, 0x14, 0x06, 0x18, 0xf7, 0xf3, 0x0a,
  0xf5, 0x0d, 0x01, 0xfa, 0x20, 0xeb, 0x02, 0x11, 0xfa, 0x13, 0x04, 0x0e,
  0x28, 0x01, 0xff, 0x0f, 0xed, 0x04, 0x17, 0x0f, 0x37, 0x04, 0xeb, 0xf0,
  0xdc, 0x1e, 0x1a, 0x09, 0x2e, 0x08, 0xf5, 0xf3, 0xf3, 0x04, 0x04, 0xfd,
  0x19, 0xf8, 0x0a, 0x03, 0x08, 0x09, 0x0a, 0x07, 0xfb, 0xe6, 0x0a, 0x09,
  0xf8, 0x12, 0x11, 0x0f, 0x18, 0xed, 0xe9, 0x13, 0xea, 0x14, 0x1b, 0xfc,
  0x47, 0xe6, 0xf3, 0xfe, 0xfe, 0x1c, 0x27, 0xfa, 0x42, 0x14, 0xfa, 0xf4,
  0x00, 0x06, 0x22, 0xf4, 0x1a, 0x09, 0xf5, 0xfb, 0xe9, 0x08, 0x21, 0xfe,
  0x09, 0xfe, 0x00, 0x19, 0xf7, 0x01, 0x0b, 0xfa, 0x16, 0xf6, 0x09, 0x27,
  0x00, 0xfb, 0x13, 0x03, 0x19, 0xf4, 0xff, 0x19, 0x13, 0xf9, 0x1d, 0x09,
  0x2a, 0xee, 0xea, 0x27, 0xf9, 0xe5, 0xf8, 0xf4, 0x21, 0xe1, 0xeb, 0x06,
  0xdb, 0xf1, 0xec, 0x01, 0x12, 0xeb, 0xfd, 0xfa, 0xdc, 0x02, 0xff, 0x07,
  0x15, 0xf1, 0x00, 0xf1, 0xcd, 0xff, 0xf8, 0x02, 0xf6, 0x0c, 0xfa, 0xff,
  0xce, 0xf9, 0xdd, 0x15, 0xcc, 0x00, 0x13, 0x0f, 0xe9, 0xf4, 0xd1, 0x06,
  0x9d, 0xf0, 0x09, 0x04, 0xd9, 0x10, 0xd9, 0x03, 0xcf, 0xe2, 0x09, 0x08,
  0xd2, 0x07, 0xe9, 0x16, 0xe9, 0x03, 0xed, 0x01, 0xd8, 0xf9, 0xf0, 0x09,
  0xef, 0x0e, 0xfc, 0xff, 0xe7, 0x06, 0xf5, 0x06, 0x00, 0x01, 0x0c, 0x05,
  0xfa, 0xf9, 0x10, 0x07, 0xf4, 0xef, 0x04, 0x0f, 0xfd, 0xfc, 0x0f, 0x07,
  0xee, 0xe4, 0xf5, 0x11, 0xf9, 0xf0, 0x04, 0x03, 0x02, 0xe9, 0xf9, 0x18,
  0xfe, 0xfa, 0x12, 0xf7, 0x22, 0xff, 0x05, 0x15, 0xe6, 0xe0, 0xef, 0x0b,
  0x0c, 0xdd, 0xf0, 0xfe, 0xe0, 0xec, 0xd8, 0x17, 0xc4, 0xe7, 0xf4, 0x05,
  0xd8, 0xf2, 0xc7, 0x18, 0xb3, 0xee, 0xfc, 0xf9, 0xb9, 0xe6, 0xae, 0x0a,
  0xa2, 0x00, 0x08, 0x02, 0xda, 0xd9, 0xb8, 0x1a, 0xb5, 0xf7, 0x11, 0xe3,
  0xd3, 0xe2, 0xc3, 0x10, 0xbe, 0xed, 0xf0, 0xe5, 0xd3, 0xf4, 0xbf, 0x14,
  0xbd, 0xda, 0xf4, 0xfd, 0xbe, 0x07, 0xa9, 0x15, 0xa7, 0xf7, 0xfd, 0x07,
  0xbe, 0xf8, 0xc1, 0x0f, 0xbe, 0xf7, 0xf6, 0xff, 0xd4, 0x01, 0xdc, 0x0a,
  0xc9, 0xef, 0x01, 0x14, 0xde, 0xf2, 0xf5, 0x12, 0xe5, 0xf6, 0xfd, 0x0b,
  0xfd, 0xf7, 0x01, 0x0a, 0xf6, 0xe8, 0x05, 0x01, 0x04, 0xed, 0x13, 0x07,
  0x15, 0xed, 0xf4, 0x14, 0x0a, 0xeb, 0x23, 0xf7, 0x1d, 0xeb, 0x06, 0x27,
  0xf3, 0xe9, 0xec, 0x08, 0xf7, 0xf0, 0xfc, 0xf9, 0xe6, 0xd9, 0xd4, 0x12,
  0xc7, 0xe6, 0xf7, 0xe7, 0xd4, 0xd6, 0xc0, 0x1e, 0x92, 0xdd, 0xe8, 0xf6,
  0xbb, 0xeb, 0xad, 0x08, 0xb3, 0xde, 0xfd, 0xe6, 0xcc, 0xf7, 0xbb, 0x18,
  0xc4, 0xec, 0xf9, 0xe6, 0xdd, 0xf6, 0xdd, 0xff, 0xd7, 0xf9, 0x02, 0xf1,
  0xf3, 0xd9, 0xdf, 0x14, 0xcc, 0xe4, 0x12, 0xde, 0xd2, 0xdc, 0xcc, 0x18,
  0xc6, 0xfb, 0x02, 0xf2, 0xbc, 0xee, 0xb5, 0x14, 0xb2, 0xf9, 0x0c, 0x12,
  0xc1, 0xf1, 0xdd, 0x21, 0xc0, 0xda, 0xfb, 0x06, 0xda, 0xeb, 0xf9, 0x13,
  0xcb, 0xdd, 0xf6, 0x13, 0x06, 0xf7, 0x09, 0xfb, 0xf8, 0xe5, 0xef, 0x0d,
  0x06, 0x01, 0x1d, 0xf5, 0x02, 0xfa, 0xe9, 0x1f, 0x0b, 0x00, 0x1d, 0xf1,
  0x13, 0xf6, 0x06, 0x09, 0x02, 0xe4, 0xff, 0x06, 0x0e, 0xe0, 0x02, 0xfe,
  0xed, 0xdd, 0xd9, 0x14, 0xed, 0xdc, 0x00, 0xee, 0xde, 0xf0, 0xcd, 0x06,
  0xce, 0xd5, 0xe9, 0xe8, 0xd8, 0xea, 0xc3, 0x15, 0xd7, 0xe9, 0xe8, 0xea,
  0xda, 0xeb, 0xdc, 0x09, 0xfb, 0x09, 0xfd, 0xdd, 0xcd, 0xfa, 0xe3, 0x14,
  0x0e, 0x15, 0x0b, 0xe1, 0xdf, 0xe8, 0xee, 0x06, 0xfd, 0x12, 0x0c, 0xda,
  0xf4, 0xdf, 0xdb, 0x18, 0xd9, 0x03, 0x17, 0xf2, 0xd6, 0xe7, 0xd4, 0x15,
  0xca, 0xf1, 0x0c, 0xfb, 0xe3, 0xe4, 0xd9, 0x13, 0xe6, 0xe0, 0xe8, 0xe9,
  0xe4, 0xf7, 0xe7, 0x0d, 0xd7, 0xda, 0xd8, 0x01, 0xef, 0xeb, 0x07, 0xfc,
  0xe2, 0xe8, 0xf3, 0x16, 0x04, 0xf6, 0x21, 0xfb, 0x07, 0xdf, 0xe1, 0x2e,
  0x07, 0x03, 0x2d, 0xf0, 0x1e, 0xee, 0x00, 0x20, 0xf7, 0xea, 0x1b, 0xf9,
  0x0c, 0xe1, 0xeb, 0xf2, 0xf8, 0xdf, 0xeb, 0x12, 0xef, 0xd5, 0xe5, 0xef,
  0xe7, 0xf5, 0xe8, 0x0f, 0xe9, 0xef, 0xef, 0xd7, 0xdb, 0xea, 0xe1, 0x13,
  0x04, 0x06, 0x07, 0xc5, 0xd5, 0xf9, 0xff, 0x0d, 0x0f, 0x2a, 0x06, 0xd2,
  0xcb, 0xf1, 0x08, 0x11, 0x0d, 0x27, 0x1c, 0xcc, 0xeb, 0xe5, 0x06, 0x0b,
  0x00, 0x33, 0x30, 0xdb, 0xfd, 0xe1, 0x00, 0x03, 0xe8, 0x35, 0x1f, 0xcb,
  0xe0, 0xf0, 0xf5, 0x0b, 0xf2, 0xfd, 0x1a, 0xe5, 0xf1, 0xe9, 0xf5, 0x16,
  0xe0, 0xef, 0xf9, 0xf9, 0xfa, 0xe5, 0xff, 0x03, 0xe5, 0xd5, 0xea, 0xf8,
  0xf9, 0xe7, 0x03, 0x08, 0x00, 0xee, 0xf1, 0xfe, 0x17, 0xf0, 0x2e, 0xf3,
  0x0d, 0xef, 0xf0, 0x1d, 0xff, 0xed, 0x18, 0xeb, 0x04, 0xfc, 0xf5, 0x1a,
  0xf3, 0xeb, 0x01, 0x01, 0xfa, 0xf9, 0xff, 0xed, 0xf3, 0xe1, 0xf3, 0x0f,
  0xfa, 0xda, 0xf8, 0xec, 0xf2, 0xe7, 0xf7, 0xfe, 0xea, 0xf9, 0xfb, 0xd4,
  0xdc, 0xf6, 0xed, 0x08, 0xea, 0x02, 0xf9, 0xbc, 0xc5, 0xe1, 0xd9, 0x00,
  0xf3, 0x2b, 0x19, 0xc7, 0xd1, 0xf3, 0xf4, 0x10, 0xdf, 0x4d, 0x2e, 0xbf,
  0xe1, 0xf4, 0xf8, 0x13, 0xdb, 0x42, 0x38, 0xba, 0xfe, 0xed, 0xf7, 0x03,
  0xdc, 0x31, 0x36, 0xba, 0xed, 0xe0, 0xfd, 0x19, 0xf8, 0x0d, 0x18, 0xc8,
  0xf5, 0xee, 0x05, 0x09, 0xf3, 0xe4, 0x06, 0xd5, 0xf8, 0xf3, 0x05, 0xfe,
  0x03, 0xe8, 0xf5, 0xfc, 0x0c, 0x01, 0x0d, 0x12, 0xf6, 0xde, 0xea, 0x01,
  0x12, 0xee, 0x2a, 0x06, 0x09, 0xdd, 0xf0, 0x0d, 0x19, 0xf5, 0x2a, 0xf6,
  0x14, 0xf4, 0x0c, 0x12, 0xef, 0xe1, 0x15, 0x0a, 0x11, 0xff, 0x09, 0xf1,
  0xf8, 0xe2, 0x09, 0xfe, 0xf6, 0xeb, 0x00, 0xe8, 0xdb, 0xf2, 0xf1, 0x0f,
  0xdc, 0xea, 0x05, 0xe5, 0xe3, 0xe2, 0xf4, 0x0b, 0xdb, 0x14, 0xfe, 0xb7,
  0xbe, 0xda, 0xdc, 0x10, 0xeb, 0x10, 0x06, 0xb9, 0xce, 0xdf, 0xef, 0x09,
  0xd6, 0x2f, 0x24, 0xbe, 0xce, 0xd6, 0xfa, 0x1a, 0xe1, 0x23, 0x32, 0xc1,
  0xde, 0xd3, 0x07, 0x01, 0xd5, 0x2e, 0x2d, 0xb4, 0xdf, 0xde, 0x16, 0x13,
  0xe5, 0x14, 0x19, 0xc5, 0xf4, 0xea, 0x0e, 0x02, 0xea, 0xf9, 0x05, 0xdc,
  0x0a, 0xfa, 0x1f, 0xfb, 0x08, 0xf7, 0xf3, 0xf9, 0x01, 0xfb, 0x0f, 0xf7,
  0x15, 0xea, 0x00, 0x0c, 0x13, 0x00, 0x32, 0xff, 0x1c, 0x02, 0xf1, 0x0d,
  0x08, 0x00, 0x29, 0xf6, 0x1e, 0x04, 0xfb, 0x03, 0x04, 0xf9, 0x1d, 0xf6,
  0x13, 0x0e, 0x09, 0x07, 0xef, 0xe8, 0x01, 0x0b, 0xfe, 0x00, 0xfe, 0xe4,
  0xf4, 0xe5, 0xe5, 0x05, 0xf0, 0xf9, 0x06, 0xe7, 0xec, 0xcf, 0xe1, 0x0d,
  0xdb, 0x04, 0x00, 0xd2, 0xcd, 0xcd, 0xc5, 0x10, 0xce, 0x0e, 0x18, 0xb9,
  0xc6, 0xd1, 0xc1, 0x13, 0xde, 0x1d, 0x19, 0xbd, 0xc5, 0xcb, 0xec, 0x07,
  0xd2, 0x14, 0x17, 0xc7, 0xdd, 0xca, 0xe8, 0x05, 0xd1, 0x05, 0x1f, 0xcd,
  0xdc, 0xd6, 0x0e, 0x0a, 0xf3, 0x0e, 0x10, 0xdb, 0x05, 0xe4, 0x13, 0x11,
  0x0a, 0xfc, 0x0e, 0xe3, 0x0c, 0xe4, 0x1e, 0xf8, 0x0c, 0xfb, 0x02, 0xfe,
  0x0e, 0xfe, 0x28, 0x05, 0x19, 0x0b, 0xff, 0xff, 0x1a, 0x00, 0x2d, 0xf9,
  0x2b, 0x15, 0x0d, 0x19, 0xf7, 0x19, 0xf8, 0x02, 0xda, 0xd8, 0xf5, 0xee,
  0xfd, 0x1e, 0x0d, 0x16, 0xfb, 0xc9, 0xe1, 0xdb, 0x0e, 0x12, 0x1d, 0x07,
  0xe8, 0xde, 0xd9, 0xd8, 0x0a, 0x0f, 0x2d, 0xff, 0xf5, 0xe6, 0xf2, 0xca,
  0x1c, 0x0c, 0x22, 0x10, 0xfc, 0xee, 0xff, 0xb3, 0x2e, 0x0e, 0x2d, 0x03,
  0xed, 0xdc, 0xf2, 0xbc, 0x18, 0xf8, 0x29, 0xf1, 0xf9, 0xe4, 0xec, 0xab,
  0x23, 0x04, 0x1e, 0xfe, 0x01, 0xe9, 0xfb, 0xab, 0x20, 0x03, 0x20, 0x05,
  0x03, 0xfd, 0xec, 0xc2, 0x31, 0x00, 0x23, 0x06, 0xf9, 0xfd, 0xfb, 0xc0,
  0x11, 0xf7, 0xfb, 0x0a, 0xf7, 0x05, 0x02, 0xb7, 0x19, 0xfa, 0xf2, 0x0d,
  0xf0, 0xff, 0x15, 0xc3, 0x14, 0x06, 0xf0, 0x07, 0xf5, 0xdd, 0x0c, 0xc5,
  0x03, 0xf6, 0xc2, 0x15, 0xc9, 0xe9, 0x05, 0xd9, 0xf3, 0x0a, 0xfb, 0x16,
  0xf8, 0xcc, 0xea, 0xd1, 0xfc, 0x1e, 0x14, 0x0d, 0xfb, 0xd7, 0xf3, 0xe6,
  0xf6, 0x1c, 0x0b, 0x0c, 0xf6, 0xf9, 0xf2, 0xe1, 0xf6, 0x08, 0x14, 0x01,
  0xeb, 0xf9, 0xf6, 0xb6, 0x0e, 0x02, 0x12, 0x0e, 0xfd, 0xec, 0x06, 0xc9,
  0x11, 0xf8, 0x1f, 0x04, 0xf8, 0x09, 0xea, 0xb8, 0x05, 0xf5, 0x2f, 0x05,
  0x10, 0xfd, 0x00, 0xbf, 0x05, 0xf4, 0x2f, 0xf9, 0xf7, 0xfc, 0xfd, 0xbd,
  0x10, 0xf0, 0x12, 0x01, 0x04, 0x04, 0xff, 0xc5, 0x28, 0xff, 0x10, 0x05,
  0x0c, 0xec, 0xfc, 0xc9, 0x19, 0x0b, 0x00, 0x09, 0x04, 0x06, 0x09, 0xc4,
  0x24, 0x04, 0xfa, 0x03, 0xf3, 0xef, 0xf6, 0xc9, 0x15, 0x06, 0xf8, 0x0b,
  0x07, 0xec, 0x00, 0xce, 0x10, 0x02, 0xdb, 0x11, 0xdf, 0xff, 0x00, 0xca,
  0xea, 0x14, 0xf7, 0x19, 0xeb, 0xe0, 0xf4, 0xd1, 0x01, 0x1a, 0xf0, 0x17,
  0x03, 0xe6, 0xed, 0xd7, 0xfa, 0x08, 0x0d, 0xfd, 0xe1, 0x0d, 0xf7, 0xc5,
  0xe0, 0xf3, 0x04, 0x15, 0xc3, 0x05, 0x07, 0xb9, 0xf2, 0xff, 0xf2, 0x07,
  0xcc, 0x1f, 0x0c, 0xb1, 0xf2, 0xed, 0xed, 0xff, 0xd2, 0x0d, 0xfd, 0x9f,
  0xe8, 0xe8, 0x04, 0xee, 0xe6, 0x09, 0xf2, 0xad, 0xfb, 0xf6, 0x09, 0x00,
  0xe6, 0x08, 0x05, 0xbe, 0x04, 0xee, 0x03, 0xf2, 0xfb, 0x00, 0x01, 0xc8,
  0x0b, 0xfc, 0x0c, 0xf3, 0xe8, 0x05, 0x01, 0xc0, 0x13, 0xfd, 0xff, 0xf7,
  0xf6, 0x05, 0x04, 0xb4, 0x04, 0xf8, 0xf9, 0xef, 0xf2, 0xfa, 0xf7, 0xcf,
  0x18, 0xf8, 0xfa, 0x07, 0xf1, 0xfd, 0x18, 0xcf, 0x01, 0xfd, 0xec, 0x0f,
  0xde, 0xef, 0xfb, 0xc9, 0xfe, 0xfa, 0xfb, 0xfa, 0xf7, 0xf3, 0xe6, 0xd5,
  0xf3, 0x00, 0xe8, 0x10, 0xef, 0xff, 0xff, 0xd0, 0xfe, 0x08, 0xe3, 0x07,
  0xed, 0xef, 0x0c, 0xd7, 0xf2, 0xe9, 0xea, 0x03, 0xbe, 0x12, 0x04, 0xad,
  0xf6, 0x00, 0xeb, 0x16, 0xb8, 0x0d, 0x02, 0xb5, 0xea, 0xf0, 0x03, 0x04,
  0xd0, 0x0c, 0x04, 0xb5, 0xea, 0xd9, 0x05, 0xfd, 0xdf, 0x0c, 0xef, 0xb3,
  0x02, 0xdf, 0xfe, 0xf2, 0xdf, 0x1d, 0x0b, 0xc0, 0xf8, 0xd9, 0xee, 0x02,
  0xd8, 0x10, 0xfd, 0xd3, 0x0a, 0xea, 0xdf, 0x08, 0xd6, 0x19, 0x0a, 0xd4,
  0x01, 0x09, 0xe7, 0x06, 0xcc, 0x0c, 0xfa, 0xbf, 0xf0, 0x0a, 0xe9, 0x07,
  0xe5, 0xff, 0x0c, 0xb7, 0xff, 0x01, 0xe3, 0xf5, 0xe5, 0x0f, 0x14, 0xd4,
  0xff, 0xeb, 0xdc, 0x07, 0xe7, 0xf4, 0x11, 0xe0, 0xfc, 0x09, 0xdb, 0xfd,
  0xe5, 0x00, 0xf8, 0xd1, 0xf2, 0x05, 0xed, 0x00, 0xf6, 0xf2, 0x0a, 0xd9,
  0xeb, 0xec, 0xd7, 0xff, 0xd0, 0x03, 0x04, 0xe3, 0xff, 0xeb, 0xd2, 0x18,
  0xc1, 0xf7, 0xf3, 0xbc, 0xf5, 0xf3, 0xee, 0x07, 0xd8, 0xe1, 0x03, 0xc5,
  0xd8, 0xe9, 0xf9, 0xee, 0xe7, 0xea, 0xed, 0xcd, 0xe0, 0xe1, 0xf1, 0xe7,
  0xde, 0xfb, 0xfa, 0xba, 0xe3, 0xda, 0xe6, 0xe3, 0xdb, 0xfd, 0xf0, 0xb9,
  0x02, 0xde, 0xd7, 0xf8, 0xd5, 0xfc, 0x06, 0xd3, 0x0e, 0xd5, 0xcb, 0x16,
  0xbc, 0xf6, 0x08, 0xce, 0x04, 0xfb, 0xcd, 0xfd, 0xd7, 0xf0, 0x04, 0xd2,
  0xf8, 0x04, 0xd6, 0x08, 0xe4, 0xf7, 0x10, 0xd2, 0xfd, 0xf4, 0xea, 0xf8,
  0xe3, 0xf1, 0x08, 0xc4, 0x05, 0xfc, 0xe6, 0x01, 0xee, 0x01, 0x0b, 0xe1,
  0xf2, 0x05, 0xee, 0x0c, 0xf5, 0x02, 0xf6, 0xdc, 0xf2, 0xf9, 0xfd, 0xf7,
  0xec, 0x04, 0x08, 0xe5, 0x05, 0xfa, 0xf2, 0x07, 0xe8, 0xf0, 0xfc, 0xec,
  0xf4, 0xe5, 0xe0, 0xf6, 0xc9, 0xf8, 0xf1, 0xef, 0x08, 0xf0, 0xf2, 0xfe,
  0xe9, 0xf9, 0xf1, 0xf3, 0xe7, 0xff, 0xf6, 0x00, 0x0b, 0xec, 0xf4, 0xe3,
  0xf0, 0xe3, 0x07, 0xe8, 0x1d, 0xfb, 0xef, 0xe4, 0xf3, 0xdc, 0xf8, 0xeb,
  0xe8, 0x0e, 0xf2, 0xe0, 0x18, 0xd8, 0xe3, 0x0c, 0xc1, 0x04, 0x11, 0xea,
  0x14, 0xf4, 0xdc, 0x00, 0xcc, 0xef, 0x09, 0xed, 0x06, 0x03, 0xd9, 0x00,
  0xef, 0xfb, 0x06, 0xe4, 0x0a, 0xf9, 0xec, 0x04, 0xea, 0xfb, 0x02, 0xe6,
  0x08, 0x11, 0xfa, 0xf2, 0x05, 0x0d, 0x09, 0xe2, 0x07, 0xf5, 0xf1, 0xf8,
  0xea, 0xf6, 0x0a, 0xef, 0xf2, 0x0a, 0xe0, 0x00, 0xf4, 0x06, 0xf8, 0xde,
  0x00, 0x00, 0x08, 0xf7, 0xfc, 0x01, 0x07, 0xf4, 0x0e, 0x0e, 0x06, 0xf2,
  0x09, 0x0b, 0x08, 0xf3, 0x1c, 0x03, 0x05, 0xea, 0x16, 0x14, 0x0c, 0xed,
  0x17, 0xf7, 0x25, 0x02, 0x22, 0x02, 0xea, 0x02, 0x00, 0x01, 0x28, 0xe4,
  0x55, 0xf3, 0xed, 0xfe, 0x00, 0xf4, 0x53, 0xda, 0x53, 0xfc, 0xff, 0x1a,
  0x10, 0xe7, 0x3e, 0xf1, 0x33, 0xfa, 0x09, 0x0c, 0x37, 0xe1, 0x31, 0xf2,
  0x29, 0x0b, 0x0d, 0x24, 0x34, 0xee, 0x1b, 0xec, 0x17, 0x00, 0x00, 0xfb,
  0x12, 0xf9, 0x0d, 0xf9, 0x16, 0xf9, 0x03, 0xf7, 0x12, 0xfb, 0x05, 0x07,
  0x1e, 0x0f, 0xfd, 0xf9, 0x01, 0x0f, 0x06, 0xf9, 0x09, 0x0a, 0xfe, 0xff,
  0x03, 0x09, 0xf4, 0x0b, 0xf2, 0x0e, 0x08, 0xf4, 0xf6, 0x19, 0xf6, 0x03,
  0x02, 0x22, 0x11, 0xd5, 0xf9, 0x19, 0x06, 0xf0, 0x24, 0x14, 0x0c, 0xed,
  0x20, 0x0c, 0x12, 0xe4, 0x43, 0x09, 0xff, 0x09, 0x11, 0x05, 0x32, 0xf6,
  0x6e, 0x00, 0xff, 0x06, 0x1e, 0x12, 0x3e, 0xe8, 0x62, 0x02, 0xf4, 0x1d,
  0x1e, 0x12, 0x4e, 0xdb, 0x75, 0xf9, 0xe7, 0x33, 0x02, 0x05, 0x59, 0xe9,
  0x4a, 0x13, 0x06, 0x3e, 0x00, 0xfe, 0x46, 0xef, 0x3f, 0x28, 0x14, 0x1c,
  0x40, 0xfe, 0x66, 0xea, 0x58, 0x07, 0x15, 0x2e, 0x47, 0xf9, 0x5d, 0xf5,
  0x76, 0xed, 0xef, 0x0e, 0x23, 0x11, 0x20, 0xf6, 0x5f, 0xf5, 0xfa, 0xfc,
  0x2a, 0x15, 0x24, 0x04, 0x38, 0x17, 0x0d, 0x00, 0x25, 0x19, 0x1c, 0xfb,
  0x17, 0x02, 0x01, 0xfb, 0x02, 0x18, 0x02, 0x0d, 0xfb, 0x17, 0x0a, 0xfe,
  0x03, 0x18, 0xdd, 0x07, 0x06, 0x07, 0x10, 0xf5, 0xf3, 0x1b, 0xf9, 0xf6,
  0x30, 0x0e, 0x0b, 0xf8, 0xfe, 0x0f, 0x1c, 0xf1, 0x5f, 0x1f, 0x16, 0x0e,
  0x11, 0x02, 0x38, 0xe4, 0x6c, 0x1f, 0x01, 0x17, 0x2d, 0x14, 0x55, 0xe7,
  0x70, 0x08, 0x16, 0x35, 0x25, 0xff, 0x56, 0xf1, 0x55, 0xf4, 0x0c, 0x48,
  0x1c, 0x05, 0x4d, 0xde, 0x45, 0xfc, 0xef, 0x37, 0x22, 0x1b, 0x54, 0xdf,
  0x33, 0x11, 0xf0, 0x43, 0x2a, 0x27, 0x58, 0xf4, 0x54, 0x1f, 0x05, 0x23,
  0x2c, 0x15, 0x54, 0xee, 0x74, 0x14, 0x09, 0x15, 0x1d, 0x0a, 0x3e, 0xed,
  0x5f, 0x24, 0x1b, 0x16, 0x24, 0x14, 0x34, 0xff, 0x45, 0x26, 0x29, 0x13,
  0x1a, 0x0d, 0x0b, 0xf9, 0x15, 0x15, 0x0a, 0x0d, 0x1e, 0x15, 0xf8, 0x05,
  0x0b, 0x16, 0x0c, 0xf9, 0xea, 0x19, 0xec, 0x0d, 0x02, 0x16, 0x19, 0xfb,
  0xfe, 0x18, 0x07, 0x08, 0x26, 0x15, 0x0a, 0xfe, 0xfb, 0x10, 0x0e, 0xfc,
  0x30, 0x3b, 0x11, 0x18, 0xfa, 0x1b, 0x0c, 0xf3, 0x37, 0x28, 0x1a, 0x34,
  0x13, 0x16, 0x3e, 0xee, 0x45, 0x12, 0x16, 0x44, 0x1c, 0x0c, 0x3c, 0xf2,
  0x3c, 0x06, 0xf7, 0x3d, 0x23, 0x1c, 0x30, 0xe1, 0x18, 0xee, 0x0b, 0x47,
  0x20, 0x13, 0x40, 0xe4, 0x29, 0xe0, 0xfd, 0x3a, 0x1a, 0x10, 0x3a, 0xe0,
  0x33, 0x02, 0xf0, 0x40, 0x10, 0x14, 0x33, 0xe5, 0x39, 0x08, 0x18, 0x2f,
  0x0f, 0x19, 0x1e, 0xe6, 0x47, 0x31, 0x1e, 0x22, 0x1d, 0x12, 0x11, 0xee,
  0x1f, 0x32, 0x19, 0x21, 0x22, 0x15, 0x05, 0xec, 0x1e, 0x14, 0x28, 0x20,
  0x0c, 0x09, 0x07, 0x09, 0x00, 0x23, 0x15, 0xf2, 0xf8, 0x08, 0xd4, 0x09,
  0x03, 0x1b, 0x17, 0x00, 0xf9, 0x15, 0xec, 0xf8, 0x0d, 0x16, 0x07, 0x12,
  0xf8, 0x0c, 0xfe, 0xf7, 0x19, 0x1e, 0x05, 0x32, 0xef, 0x19, 0x0e, 0x00,
  0x19, 0x12, 0x0c, 0x41, 0x0a, 0x19, 0x17, 0xe6, 0x19, 0xfc, 0xfc, 0x45,
  0x31, 0x14, 0x22, 0xf8, 0x16, 0xd9, 0xff, 0x65, 0x29, 0x26, 0x2d, 0xea,
  0x0d, 0xc1, 0xef, 0x68, 0x19, 0x16, 0x35, 0x00, 0x1d, 0xb6, 0xd8, 0x4d,
  0x12, 0x1e, 0x42, 0xf8, 0x2e, 0xdb, 0xce, 0x4a, 0xfb, 0x14, 0x1b, 0xe7,
  0x18, 0x01, 0xf4, 0x4a, 0x01, 0x1e, 0x0e, 0xee, 0x21, 0x17, 0x13, 0x32,
  0x19, 0x23, 0x23, 0xf4, 0x1d, 0x23, 0x06, 0x26, 0x0e, 0x0b, 0x15, 0xf0,
  0x0c, 0x20, 0x1d, 0x18, 0x0e, 0x14, 0xfc, 0x00, 0xd7, 0x0e, 0x14, 0x03,
  0xfd, 0x12, 0xd9, 0x05, 0x01, 0x01, 0x0e, 0xfc, 0x05, 0x15, 0xfa, 0xfc,
  0x11, 0x13, 0x14, 0x14, 0xfe, 0x16, 0x07, 0xec, 0x0f, 0x09, 0x0d, 0x2d,
  0x0c, 0x12, 0x12, 0x01, 0x1f, 0x17, 0x06, 0x48, 0x02, 0x0b, 0x03, 0xe7,
  0x1d, 0xee, 0xfe, 0x42, 0x1f, 0x0e, 0x2b, 0xf3, 0x28, 0xd5, 0xea, 0x4b,
  0x2f, 0x25, 0x38, 0xf3, 0x2b, 0xca, 0xdc, 0x48, 0x1c, 0x2f, 0x22, 0xed,
  0x05, 0xc0, 0xc9, 0x54, 0x11, 0x20, 0x24, 0xf0, 0x19, 0xd2, 0xd4, 0x67,
  0x06, 0x13, 0x05, 0xfb, 0x24, 0x02, 0xf3, 0x5d, 0x14, 0x21, 0x08, 0x05,
  0x12, 0x15, 0x06, 0x3a, 0x06, 0x10, 0x04, 0x06, 0x26, 0x18, 0x17, 0x34,
  0x1d, 0x10, 0xfb, 0x09, 0x01, 0x25, 0x1e, 0x22, 0xfe, 0x16, 0xf1, 0x05,
  0xe2, 0x05, 0x13, 0x0b, 0xee, 0xfc, 0xed, 0x0f, 0xe6, 0xfa, 0xfa, 0xf4,
  0x08, 0x24, 0xfc, 0xf6, 0xf0, 0xfb, 0xf9, 0x14, 0xfd, 0x1f, 0xff, 0xf1,
  0x0a, 0x11, 0x0d, 0x1c, 0x05, 0x0a, 0xfa, 0xf5, 0x02, 0x0e, 0x00, 0x3c,
  0x05, 0x10, 0x09, 0xfc, 0x08, 0xfd, 0x00, 0x4a, 0x1f, 0x21, 0x11, 0xe8,
  0x34, 0xdf, 0xe0, 0x54, 0x18, 0x39, 0x30, 0xfa, 0x1c, 0xcd, 0xdb, 0x4a,
  0x23, 0x2a, 0x20, 0xf4, 0x14, 0xd0, 0xda, 0x43, 0x1d, 0x3a, 0x01, 0xf7,
  0x09, 0xd7, 0xd8, 0x64, 0xfd, 0x19, 0x00, 0xfe, 0x03, 0xfd, 0xf9, 0x4b,
  0xfa, 0x1f, 0x06, 0xfe, 0x04, 0xfa, 0xf6, 0x36, 0x0c, 0x0e, 0x08, 0xf5,
  0x07, 0x0b, 0x09, 0x1c, 0x12, 0x14, 0x08, 0x07, 0xfc, 0x07, 0x05, 0x18,
  0xed, 0x03, 0xe5, 0x06, 0xee, 0x17, 0x0e, 0x09, 0xf1, 0xf7, 0xe8, 0xfa,
  0xf3, 0xee, 0x08, 0x07, 0xfe, 0x0d, 0xf4, 0xf0, 0xf3, 0xef, 0xf4, 0x00,
  0x0e, 0x15, 0x04, 0x01, 0x00, 0x07, 0x00, 0x25, 0xff, 0x16, 0x0b, 0xfd,
  0xf4, 0xf9, 0x05, 0x31, 0x11, 0x04, 0x0d, 0xfe, 0xff, 0xf4, 0xfd, 0x4c,
  0x1b, 0x27, 0x26, 0xe8, 0x24, 0xf0, 0xe5, 0x51, 0x12, 0x2c, 0x2d, 0xf0,
  0x16, 0xe2, 0xe3, 0x44, 0x17, 0x22, 0x16, 0xf4, 0x15, 0xc6, 0xe2, 0x54,
  0x20, 0x2d, 0x0d, 0xf4, 0x12, 0xe3, 0xdb, 0x4b, 0x0e, 0x16, 0xf9, 0xfa,
  0x0f, 0xec, 0xdd, 0x3a, 0x0a, 0x16, 0xf1, 0x00, 0x11, 0x01, 0xf5, 0x30,
  0x06, 0x22, 0x0d, 0x07, 0xf5, 0x09, 0xff, 0x1c, 0xfc, 0x00, 0xf8, 0xf3,
  0xeb, 0x0d, 0x06, 0x17, 0x03, 0x08, 0xd5, 0x03, 0xd2, 0x0c, 0x11, 0x0d,
  0xf2, 0xfa, 0xfa, 0xe9, 0xf5, 0xf3, 0xfc, 0xfd, 0xfe, 0xef, 0x05, 0xf1,
  0xeb, 0x05, 0xfb, 0x06, 0xea, 0xf0, 0xf6, 0xff, 0xf2, 0x0b, 0x00, 0x01,
  0xf2, 0xfb, 0xf0, 0xfd, 0xf6, 0xe9, 0x00, 0x13, 0xff, 0xed, 0xfb, 0xf6,
  0xef, 0xee, 0xf1, 0x06, 0xf3, 0xe6, 0xff, 0xfe, 0xff, 0xf9, 0x05, 0xfa,
  0xed, 0xe8, 0xeb, 0xfc, 0xff, 0x0a, 0x03, 0x13, 0xf5, 0xf6, 0x06, 0xfd,
  0x02, 0xfb, 0x03, 0xff, 0xea, 0xfd, 0xf9, 0xec, 0x04, 0x09, 0xf5, 0x10,
  0x06, 0xf5, 0x06, 0xfd, 0xfe, 0x04, 0xfe, 0x0e, 0x06, 0x02, 0x02, 0xfc,
  0xfd, 0xf6, 0x05, 0x07, 0xfd, 0xfa, 0xf7, 0x07, 0xf2, 0xff, 0xf7, 0xf0,
  0x0c, 0x10, 0xfe, 0x07, 0x02, 0x03, 0xfa, 0x07, 0xfa, 0xf0, 0x09, 0xf4,
  0xed, 0xf2, 0x03, 0xf5, 0x03, 0xeb, 0xf4, 0xeb, 0xf5, 0x07, 0x12, 0x07,
  0x04, 0xe6, 0xf4, 0xfa, 0x02, 0x0d, 0xfb, 0x13, 0xee, 0xfe, 0xf1, 0xf3,
  0xe9, 0x0d, 0x07, 0x13, 0xee, 0xf9, 0x08, 0xf0, 0x09, 0xfd, 0xee, 0x1a,
  0xea, 0xf2, 0xf3, 0xf0, 0xf7, 0xec, 0xf0, 0x09, 0xfe, 0xee, 0x02, 0xf5,
  0x05, 0x0b, 0xf2, 0x0c, 0x03, 0xe7, 0xeb, 0x03, 0xf3, 0x0b, 0xf2, 0x0a,
  0xeb, 0x00, 0xef, 0xf4, 0xea, 0xf8, 0xec, 0x08, 0x04, 0xe9, 0x00, 0xf7,
  0xf4, 0xf3, 0xef, 0xfe, 0x08, 0xfa, 0x03, 0xfd, 0x07, 0xff, 0xf9, 0x05,
  0x02, 0xf4, 0xf5, 0x05, 0xfe, 0x04, 0xf1, 0x04, 0xfe, 0xf8, 0x05, 0x07,
  0x00, 0x05, 0xf4, 0xf7, 0x03, 0x07, 0x09, 0x03, 0x02, 0x03, 0xfa, 0x09,
  0x08, 0xf3, 0xf7, 0x09, 0xf8, 0xff, 0xf2, 0xf6, 0xf5, 0x01, 0xef, 0xf3,
  0xf7, 0x10, 0x11, 0x10, 0xfc, 0xf6, 0xef, 0xfb, 0x04, 0x15, 0x0e, 0x16,
  0x05, 0xf6, 0xea, 0xf3, 0xff, 0x01, 0x06, 0xfa, 0xee, 0xf7, 0x01, 0x04,
  0x0c, 0xf8, 0x0b, 0xf5, 0xf1, 0xfe, 0xfc, 0xfa, 0xf9, 0xf1, 0xf2, 0xf7,
  0xf8, 0xf9, 0xf7, 0xf3, 0xfd, 0xff, 0xfc, 0xfb, 0xfc, 0x01, 0xfd, 0xfb,
  0x00, 0xfb, 0xf5, 0xfa, 0xeb, 0xf5, 0xfa, 0x03, 0xf2, 0x04, 0xef, 0x11,
  0xf0, 0xff, 0x03, 0xe6, 0x06, 0x15, 0xf4, 0xf0, 0x02, 0x02, 0xf1, 0xf7,
  0x07, 0xf8, 0xfd, 0xf2, 0x0f, 0xfd, 0x0b, 0xec, 0x05, 0xed, 0xf2, 0xf3,
  0x0f, 0xf5, 0xf7, 0xfa, 0xf6, 0xfe, 0xed, 0xfd, 0x0d, 0xf2, 0xf5, 0xf8,
  0xf6, 0xf6, 0xee, 0x10, 0xfc, 0x02, 0xfc, 0xf5, 0x06, 0xfe, 0xfe, 0xef,
  0xea, 0x01, 0xfc, 0x07, 0xfc, 0xf4, 0x04, 0x02, 0xf7, 0xf4, 0x01, 0xf3,
  0x03, 0x10, 0x0e, 0x02, 0x03, 0x06, 0xfb, 0x01, 0x06, 0x0c, 0xf8, 0xf0,
  0x08, 0x03, 0xf8, 0xf0, 0xf7, 0x08, 0xee, 0x02, 0xf0, 0xfa, 0x03, 0xf1,
  0x02, 0x05, 0x00, 0xf4, 0x07, 0x0c, 0xf2, 0xea, 0x0c, 0xef, 0x09, 0x02,
  0xed, 0xec, 0x05, 0xfb, 0xee, 0x02, 0x04, 0xfa, 0xfd, 0xf8, 0x07, 0xf5,
  0x04, 0xf4, 0xf3, 0xf6, 0xfe, 0xff, 0xfe, 0xe7, 0xf3, 0xfa, 0x09, 0xfa,
  0x00, 0xf3, 0x08, 0xf5, 0xf6, 0xff, 0x00, 0xfb, 0x06, 0xfd, 0x0e, 0xf6,
  0xfb, 0xff, 0x00, 0xfd, 0x0d, 0x02, 0xfa, 0xf4, 0x0c, 0xfd, 0xf7, 0xfc,
  0xf8, 0xf9, 0xfc, 0xed, 0xf3, 0xef, 0xf0, 0x00, 0xf5, 0x09, 0xef, 0xf8,
  0xf2, 0xf5, 0xf9, 0x00, 0xeb, 0xf5, 0xf7, 0xf9, 0xf5, 0xf9, 0xfa, 0x00,
  0x02, 0x02, 0x0b, 0x07, 0x04, 0xec, 0xf0, 0xf8, 0xf8, 0x0e, 0xf8, 0x05,
  0xfd, 0xff, 0xe6, 0xf4, 0x06, 0xff, 0xf8, 0xee, 0xf6, 0x09, 0x01, 0xf7,
  0xfb, 0x09, 0xfb, 0xf8, 0xf0, 0x0d, 0x03, 0xf7, 0xfc, 0x07, 0xfd, 0x05,
  0xff, 0x10, 0xfd, 0xf2, 0xf5, 0x01, 0x12, 0xfb, 0xf5, 0xff, 0x09, 0xee,
  0xfc, 0xfa, 0x06, 0xff, 0xf1, 0x02, 0xfa, 0xea, 0x06, 0xf9, 0xfc, 0xfe,
  0x0a, 0x08, 0x0a, 0xef, 0x00, 0xef, 0x02, 0x05, 0xf8, 0xf5, 0xec, 0xf1,
  0x15, 0xf0, 0x03, 0xe6, 0x04, 0xfb, 0xeb, 0xf5, 0x06, 0xfa, 0x0d, 0xfb,
  0x05, 0xf3, 0xf6, 0x06, 0x0a, 0xea, 0xf5, 0xfd, 0xf2, 0xf5, 0x00, 0xf9,
  0x09, 0x00, 0x02, 0x09, 0x03, 0x00, 0x00, 0x0d, 0xed, 0xee, 0xee, 0xfe,
  0xfa, 0xf7, 0x00, 0x04, 0x03, 0xf2, 0x0a, 0x05, 0xef, 0x02, 0xff, 0xfb,
  0x08, 0xeb, 0xfb, 0xf4, 0xf7, 0xec, 0xfb, 0xf5, 0x0a, 0xfe, 0x00, 0xfa,
  0xfc, 0x00, 0xe8, 0xef, 0xf9, 0xfc, 0xf9, 0x03, 0xfe, 0xff, 0xe9, 0xf8,
  0x03, 0xf0, 0x0f, 0xf6, 0x16, 0xec, 0xf4, 0xef, 0xfb, 0x02, 0x03, 0xe8,
  0x05, 0x06, 0xff, 0xf5, 0x0d, 0x0e, 0xff, 0xfc, 0x05, 0xf8, 0x08, 0xf9,
  0x0a, 0x0b, 0x0e, 0xf9, 0x00, 0xf7, 0x03, 0xfa, 0x0a, 0xf6, 0xfe, 0xeb,
  0xf6, 0xf8, 0xf6, 0xee, 0x07, 0x11, 0xef, 0xf2, 0xf3, 0x09, 0xfe, 0x07,
  0xf7, 0xf2, 0xf6, 0xf1, 0x01, 0xf1, 0x03, 0x00, 0x10, 0x0f, 0xf2, 0xee,
  0x08, 0xf2, 0xfa, 0x03, 0xfd, 0xf2, 0x06, 0xec, 0xee, 0xed, 0x00, 0xf0,
  0xff, 0x08, 0xf7, 0xfd, 0xfa, 0xfc, 0xfd, 0xfc, 0x03, 0xea, 0x06, 0xfb,
  0xf8, 0xef, 0x00, 0xed, 0x06, 0xf0, 0xff, 0xf4, 0x04, 0xf8, 0xf1, 0xee,
  0xfd, 0x00, 0x0b, 0xed, 0x04, 0x04, 0xfb, 0xf2, 0xfa, 0xed, 0x0c, 0xfe,
  0x0a, 0xe9, 0xfa, 0x04, 0xfb, 0xed, 0x06, 0x03, 0xf9, 0xf2, 0xed, 0xf1,
  0x03, 0xf7, 0x0a, 0xee, 0x02, 0xfe, 0xfa, 0xfd, 0xf5, 0xea, 0x15, 0xec,
  0x01, 0x05, 0xf7, 0xfc, 0x14, 0x01, 0xf5, 0xfc, 0xee, 0xf5, 0x0b, 0xf8,
  0xfe, 0xf4, 0x0a, 0x00, 0xf5, 0xf4, 0xeb, 0x03, 0xf9, 0xf3, 0xf6, 0xff,
  0x07, 0xf7, 0x04, 0xef, 0xfc, 0x04, 0x05, 0xe9, 0xf6, 0xf8, 0xf8, 0xea,
  0x06, 0x06, 0xf8, 0xf8, 0x04, 0xfc, 0xea, 0xfc, 0x05, 0x01, 0xff, 0xed,
  0x03, 0xf3, 0xfb, 0x05, 0x00, 0xf0, 0x01, 0x00, 0xfa, 0xfa, 0xf4, 0xf6,
  0xf4, 0x07, 0xf5, 0x01, 0xfb, 0xf2, 0x0a, 0xf0, 0x0a, 0xf6, 0x0b, 0xfd,
  0x0f, 0xfc, 0xef, 0x04, 0xfa, 0x00, 0x04, 0xf8, 0x0d, 0x0e, 0xf3, 0xee,
  0x08, 0xf0, 0xf8, 0xfb, 0x09, 0xfb, 0x02, 0xfa, 0x00, 0xfe, 0xf8, 0xed,
  0x0f, 0x06, 0xf4, 0x00, 0x05, 0xf1, 0x05, 0xe7, 0x00, 0x0b, 0x01, 0xee,
  0xff, 0x00, 0x03, 0x00, 0x02, 0x08, 0x06, 0xf3, 0x0c, 0x03, 0x0a, 0xed,
  0x07, 0xeb, 0xf3, 0xf6, 0x00, 0xf0, 0x14, 0xf3, 0x0d, 0xfa, 0xf9, 0xea,
  0xfc, 0xf4, 0xfd, 0xfb, 0xff, 0xf8, 0xe7, 0xfe, 0xfa, 0xf3, 0xfe, 0xea,
  0x08, 0xe8, 0xf1, 0xf0, 0x0c, 0xf5, 0xfe, 0xf6, 0x12, 0xf2, 0xfc, 0xf3,
  0x0a, 0x0c, 0x1a, 0xf6, 0xfc, 0xf4, 0xf6, 0xf3, 0xf4, 0x14, 0x04, 0xfc,
  0xec, 0x0e, 0x0b, 0x07, 0xf3, 0xfc, 0x00, 0xf2, 0xf1, 0xfb, 0xfe, 0x07,
  0x0a, 0xfe, 0xf4, 0x02, 0xfb, 0xfb, 0x0b, 0x06, 0x02, 0x04, 0x09, 0xfa,
  0xee, 0x1a, 0xfb, 0xec, 0x04, 0x03, 0x0a, 0xf4, 0x04, 0x09, 0x13, 0x08,
  0x0f, 0x02, 0x0c, 0xf2, 0x01, 0x00, 0x0f, 0xfa, 0x02, 0xf2, 0x03, 0xf6,
  0xf9, 0xf9, 0x09, 0xf4, 0xf6, 0xeb, 0xf6, 0x00, 0x0a, 0xef, 0x07, 0xfa,
  0x1b, 0xf3, 0x0b, 0xef, 0xfa, 0xec, 0xee, 0xfa, 0x09, 0xeb, 0xfe, 0xfc,
  0x00, 0x0c, 0x03, 0x08, 0xff, 0xf7, 0x01, 0xf6, 0x08, 0xf9, 0x01, 0x03,
  0xf2, 0xef, 0xf7, 0x01, 0xfe, 0xf7, 0xe7, 0xff, 0x11, 0xf7, 0x12, 0xf9,
  0xf9, 0x05, 0xfe, 0x00, 0xf9, 0xf8, 0x01, 0xfd, 0xf3, 0xfd, 0xfd, 0xef,
  0xef, 0x12, 0x09, 0xfa, 0xef, 0x01, 0xed, 0xf4, 0xf3, 0xfd, 0xf2, 0x05,
  0xf1, 0x0e, 0xf7, 0xf9, 0xf8, 0xf3, 0xf7, 0xf4, 0xf1, 0x05, 0x13, 0x09,
  0x00, 0xf6, 0xfe, 0xec, 0x01, 0x0b, 0xfa, 0xed, 0x06, 0x01, 0xf2, 0xec,
  0x01, 0xf4, 0xfc, 0xf6, 0x0f, 0x06, 0xf5, 0xfc, 0x02, 0x0c, 0xef, 0xf6,
  0xf2, 0x0b, 0x0e, 0xf8, 0x10, 0xff, 0xfd, 0x00, 0xf1, 0xfa, 0xf1, 0xeb,
  0xf8, 0xfb, 0xfc, 0xee, 0x01, 0xfc, 0xef, 0xfe, 0x01, 0x0c, 0x13, 0xf0,
  0xf9, 0xeb, 0x01, 0xfb, 0x0a, 0x03, 0x03, 0x00, 0x06, 0xfd, 0xfe, 0xfc,
  0xff, 0xfc, 0x01, 0x02, 0x12, 0xff, 0x0b, 0xee, 0xff, 0xfe, 0x06, 0x07,
  0xfd, 0xed, 0x0c, 0xf9, 0x06, 0xf1, 0xfa, 0xf3, 0x01, 0x06, 0xfb, 0xed,
  0x03, 0xfa, 0xf1, 0xed, 0xf0, 0x12, 0x0b, 0x06, 0xf0, 0x0e, 0xfa, 0x07,
  0x03, 0x04, 0x09, 0xed, 0xf9, 0x12, 0x0e, 0x04, 0x03, 0xee, 0xfc, 0xef,
  0x04, 0x00, 0x09, 0xea, 0x02, 0xf4, 0x0f, 0xfd, 0xfe, 0x13, 0xfc, 0xf7,
  0xfd, 0xef, 0xff, 0xf8, 0xfd, 0x06, 0x01, 0xf6, 0x04, 0xf0, 0x12, 0xfc,
  0x02, 0xe9, 0xfd, 0x00, 0x07, 0xf0, 0x02, 0x01, 0x0f, 0xfa, 0xfe, 0x00,
  0x02, 0x03, 0x08, 0xeb, 0x0c, 0xfd, 0xf2, 0xec, 0xf5, 0xea, 0xf1, 0xfa,
  0x01, 0xf8, 0xf3, 0xf5, 0xed, 0xf7, 0xfe, 0xfa, 0xf0, 0xea, 0x04, 0xf3,
  0xf5, 0xff, 0xf3, 0xfe, 0x08, 0xff, 0x02, 0xf3, 0x06, 0xf2, 0x00, 0xec,
  0x11, 0xfa, 0xfa, 0xfa, 0xfc, 0xfb, 0xfd, 0xf4, 0x0f, 0xfe, 0xef, 0xf5,
  0x03, 0xfc, 0xfe, 0xf1, 0xfe, 0xff, 0xed, 0xeb, 0x03, 0x11, 0xfe, 0xfe,
  0xf3, 0x0e, 0x04, 0xee, 0xf3, 0xfa, 0xf7, 0xf2, 0xf7, 0xfe, 0xee, 0x06,
  0x00, 0xf5, 0x0c, 0x00, 0x06, 0xec, 0x03, 0xfa, 0xfb, 0x0c, 0x04, 0x00,
  0x05, 0xfa, 0xea, 0xf4, 0xf0, 0x0d, 0xfc, 0xf0, 0x08, 0x0c, 0xf1, 0xff,
  0xf5, 0xec, 0xfe, 0xf2, 0x11, 0x0a, 0xf2, 0xf5, 0xf0, 0xef, 0xff, 0xf1,
  0xf9, 0xf3, 0xee, 0xf5, 0xf6, 0x03, 0x08, 0xed, 0x03, 0x04, 0xea, 0xf9,
  0x05, 0xf0, 0xf3, 0xf4, 0x0b, 0xfb, 0x04, 0xf8, 0x03, 0xec, 0xf4, 0xf6,
  0x05, 0xf9, 0x02, 0xf4, 0xfd, 0xf8, 0x05, 0xeb, 0x10, 0x01, 0xee, 0x03,
  0x15, 0xfb, 0x10, 0xfa, 0x13, 0x08, 0xf2, 0xf5, 0xfd, 0x0e, 0x0e, 0xf3,
  0xfc, 0x03, 0xfe, 0x04, 0x0d, 0x0f, 0x12, 0xf8, 0x06, 0xfc, 0xfa, 0xec,
  0x11, 0x11, 0xff, 0xf6, 0x07, 0x0c, 0xf5, 0xf6, 0xf0, 0x02, 0xf4, 0xff,
  0xef, 0x09, 0xf9, 0xed, 0xf2, 0x0e, 0x08, 0xff, 0xfd, 0xfd, 0x01, 0xf7,
  0xfd, 0xfd, 0x0b, 0xed, 0x00, 0x01, 0xf4, 0xf0, 0x0a, 0xf1, 0xfb, 0xf8,
  0xf9, 0xf9, 0xf0, 0x05, 0xf5, 0xf4, 0xf1, 0xfe, 0x06, 0x06, 0xfc, 0xf9,
  0xf5, 0xf5, 0x11, 0xe8, 0x04, 0x09, 0x03, 0x05, 0xf7, 0xf9, 0x09, 0xfb,
  0xff, 0xfb, 0xf8, 0x07, 0x07, 0x03, 0xfb, 0xf7, 0x0b, 0x08, 0x07, 0xfe,
  0xf7, 0xfc, 0xfd, 0xe7, 0x1a, 0xfb, 0xed, 0x09, 0x0a, 0xfb, 0xfb, 0xfb,
  0x0d, 0xfb, 0x0f, 0xf2, 0x17, 0x0c, 0xf6, 0xea, 0xf5, 0xf4, 0x00, 0xec,
  0x0d, 0x05, 0x0e, 0x03, 0xfb, 0xea, 0xfe, 0xec, 0xfe, 0xfb, 0x06, 0xef,
  0x04, 0xf5, 0x02, 0xf0, 0xfc, 0x0e, 0xf1, 0xfc, 0x08, 0x07, 0xf1, 0xfb,
  0xf3, 0xfb, 0x09, 0xfe, 0x04, 0x12, 0xf7, 0x09, 0xf7, 0xf8, 0xee, 0xeb,
  0xfc, 0xf1, 0xf6, 0x08, 0x03, 0xf2, 0xf8, 0xeb, 0x0b, 0xf4, 0xf9, 0xf4,
  0x00, 0xf0, 0x07, 0xee, 0x0e, 0x00, 0x02, 0xf8, 0x09, 0x0d, 0xff, 0xf7,
  0x0f, 0xf1, 0xf4, 0xfc, 0x13, 0x03, 0x0a, 0x03, 0x16, 0x06, 0xf7, 0xf1,
  0x09, 0x01, 0x05, 0x00, 0x02, 0xf7, 0xeb, 0x08, 0x06, 0xfe, 0x1c, 0xe7,
  0x08, 0xf2, 0xfa, 0xf4, 0x0c, 0xeb, 0xfa, 0xf5, 0x0c, 0xf4, 0xf8, 0x04,
  0x10, 0x06, 0x12, 0xf7, 0x0f, 0xf2, 0x0d, 0xee, 0x14, 0xf4, 0x07, 0xf7,
  0x0a, 0xf9, 0x0e, 0xef, 0x00, 0x03, 0x01, 0xef, 0xf2, 0xf5, 0x14, 0xf0,
  0x0b, 0xf8, 0x00, 0x02, 0xf7, 0xf8, 0x06, 0xfd, 0xfa, 0xed, 0x01, 0x00,
  0x19, 0x14, 0x13, 0x21, 0xff, 0xed, 0xf6, 0x0a, 0x20, 0x19, 0x0d, 0x04,
  0xf5, 0xe0, 0xd9, 0xf7, 0x0b, 0x09, 0x11, 0x08, 0xee, 0xdf, 0xd2, 0x00,
  0xf9, 0x0f, 0xfd, 0x10, 0xda, 0xf2, 0xcf, 0x0a, 0x04, 0xfb, 0xfd, 0x13,
  0xeb, 0x08, 0xd8, 0xf4, 0x16, 0x09, 0xf3, 0x0f, 0xe5, 0x0b, 0xe3, 0x09,
  0x22, 0x08, 0xf9, 0xf0, 0xe2, 0x03, 0xe9, 0x08, 0x0a, 0xf2, 0x06, 0x03,
  0xec, 0x09, 0xde, 0x02, 0x03, 0x06, 0x14, 0xee, 0xe8, 0x01, 0xf7, 0x0c,
  0xf5, 0x1a, 0xf9, 0xf3, 0xda, 0x08, 0x01, 0xf6, 0x09, 0x0b, 0x08, 0x00,
  0xfe, 0x08, 0x0e, 0x03, 0x08, 0x14, 0x06, 0xeb, 0xf9, 0x0d, 0x26, 0xf8,
  0x05, 0xf9, 0xf3, 0xf4, 0xf8, 0x03, 0x2a, 0xee, 0x1b, 0x01, 0x03, 0x03,
  0x06, 0x06, 0x18, 0x06, 0x16, 0x08, 0xfa, 0x0d, 0xec, 0xe2, 0xe6, 0x04,
  0x06, 0x0b, 0x06, 0x0b, 0xff, 0xeb, 0xde, 0xf8, 0x08, 0xf6, 0xf5, 0x05,
  0xe6, 0xea, 0xee, 0xfc, 0x21, 0x02, 0xee, 0x02, 0xf2, 0x0b, 0xda, 0x0a,
  0x26, 0xf8, 0x0a, 0x09, 0x08, 0x12, 0xe2, 0xf9, 0x31, 0x07, 0xf8, 0xff,
  0x06, 0x21, 0xf4, 0x0d, 0x10, 0xf7, 0x12, 0xed, 0xf4, 0x2a, 0xef, 0x0e,
  0x20, 0x0a, 0x11, 0xf7, 0xe7, 0x20, 0xe9, 0x04, 0x11, 0x08, 0x00, 0x04,
  0xe7, 0x03, 0xf7, 0x07, 0x04, 0xfc, 0xfc, 0xf9, 0xeb, 0x00, 0x05, 0xf7,
  0xeb, 0x03, 0xfa, 0xfc, 0xeb, 0x04, 0x17, 0xfc, 0xea, 0xf9, 0x09, 0xec,
  0xe2, 0x10, 0x1c, 0x00, 0x0f, 0xf8, 0xf8, 0x05, 0x05, 0x0d, 0x1e, 0xf2,
  0x24, 0x07, 0x06, 0xee, 0x11, 0x00, 0x0b, 0x06, 0x2d, 0xff, 0xfb, 0x1b,
  0xf1, 0xed, 0x05, 0x04, 0x14, 0x10, 0x0b, 0x09, 0xf7, 0xfe, 0xfb, 0x07,
  0x28, 0xf6, 0x08, 0x0c, 0x0e, 0xfa, 0xf9, 0x08, 0x30, 0xf7, 0xff, 0x10,
  0x16, 0x04, 0x0a, 0xfe, 0x37, 0xec, 0x0d, 0xf4, 0x06, 0x16, 0x00, 0xfb,
  0x41, 0xf4, 0xf5, 0xfe, 0x0c, 0x20, 0x0e, 0x07, 0x32, 0xf2, 0x0d, 0xf9,
  0x18, 0x31, 0x10, 0x13, 0x1e, 0x06, 0xf3, 0xef, 0x03, 0x15, 0x1d, 0x0b,
  0x33, 0xfb, 0x0f, 0x02, 0xfe, 0x09, 0x0c, 0xf5, 0x0d, 0x00, 0xe8, 0xed,
  0xe7, 0x00, 0x03, 0x0d, 0x04, 0xfd, 0xe9, 0xee, 0xf4, 0xf7, 0x12, 0x02,
  0xfc, 0x02, 0x0c, 0x00, 0xf4, 0x07, 0x14, 0x06, 0x07, 0xf0, 0xfb, 0x10,
  0x03, 0x1d, 0x21, 0xf8, 0x25, 0x07, 0xf4, 0x05, 0xfc, 0xf8, 0x1a, 0xfa,
  0x28, 0x14, 0x0a, 0x21, 0x0a, 0x04, 0x0a, 0x0f, 0x27, 0x05, 0x0d, 0x10,
  0xfc, 0xed, 0x1f, 0x00, 0x3e, 0xfb, 0xfc, 0x02, 0x0a, 0xfe, 0x1b, 0x00,
  0x52, 0xec, 0xf9, 0x02, 0x06, 0x1a, 0x3a, 0xf4, 0x4e, 0xfb, 0xfb, 0x0a,
  0x05, 0x21, 0x0e, 0x10, 0x29, 0x02, 0xfb, 0x01, 0x1b, 0x2a, 0x10, 0x05,
  0x10, 0xf7, 0xfc, 0xfb, 0xf9, 0x29, 0x11, 0x14, 0x40, 0xe4, 0xeb, 0x04,
  0xf3, 0x24, 0x27, 0xfb, 0x45, 0xff, 0xf5, 0xfd, 0x01, 0x0f, 0x38, 0xed,
  0x3d, 0xf2, 0xfe, 0xf7, 0xfd, 0x00, 0x2c, 0xfa, 0x25, 0xeb, 0xfd, 0x08,
  0x01, 0xf2, 0x1d, 0x08, 0x13, 0xf8, 0x08, 0x02, 0xf7, 0x05, 0x1b, 0xf4,
  0x1d, 0x00, 0xff, 0x11, 0x05, 0x0b, 0x21, 0xf5, 0x1a, 0xfc, 0x00, 0xfb,
  0x00, 0xff, 0x0d, 0x0e, 0x2d, 0xf7, 0x06, 0x10, 0xfe, 0x02, 0x08, 0xf3,
  0x21, 0xef, 0xfb, 0x0c, 0xdf, 0x08, 0x0e, 0xeb, 0x3c, 0x00, 0xef, 0xf7,
  0xf3, 0x07, 0x27, 0xfe, 0x4d, 0xff, 0xfe, 0xfb, 0x0e, 0x17, 0x2f, 0x02,
  0x47, 0xff, 0x04, 0xe6, 0x24, 0x10, 0x1b, 0x07, 0x33, 0xf6, 0xfb, 0xf0,
  0x18, 0x27, 0x1c, 0x0c, 0x16, 0xef, 0x02, 0xf2, 0xf8, 0x3b, 0x1e, 0x11,
  0x2c, 0xdf, 0xfb, 0x01, 0x01, 0x1e, 0x2e, 0xfd, 0x45, 0x06, 0xf7, 0xf0,
  0xf8, 0x20, 0x4a, 0xf1, 0x56, 0xf5, 0x00, 0xff, 0xfa, 0x0c, 0x33, 0x05,
  0x4a, 0xf5, 0xed, 0xef, 0xf5, 0x02, 0x31, 0xf9, 0x25, 0xec, 0x02, 0x06,
  0x0d, 0xf4, 0x25, 0x05, 0x25, 0xef, 0xfa, 0x2a, 0xfc, 0xff, 0x25, 0xf8,
  0x1b, 0xfa, 0xef, 0x12, 0x0d, 0x0c, 0x0e, 0xf7, 0x27, 0xfb, 0x01, 0x26,
  0xea, 0xfa, 0xfa, 0x01, 0x2d, 0xf9, 0xf4, 0x09, 0xdc, 0x03, 0x1f, 0xfb,
  0x3f, 0xf5, 0xe5, 0xf8, 0xec, 0x08, 0x2c, 0xf9, 0x40, 0xfe, 0x02, 0xef,
  0xf8, 0x06, 0x1c, 0x05, 0x37, 0x0a, 0x0e, 0xe1, 0x04, 0xf6, 0x26, 0x04,
  0x0d, 0x07, 0xfb, 0x06, 0x18, 0x14, 0x03, 0x17, 0x03, 0xf4, 0xf6, 0x0e,
  0xea, 0x1b, 0x21, 0x15, 0x10, 0xec, 0xe5, 0x09, 0xec, 0x17, 0x36, 0x00,
  0x3d, 0xe0, 0xea, 0xf0, 0xea, 0x17, 0x48, 0x06, 0x3b, 0x0b, 0xff, 0xe6,
  0xf7, 0x19, 0x30, 0xec, 0x34, 0x08, 0xf1, 0xe2, 0xf5, 0xf2, 0x1e, 0x00,
  0x28, 0xfd, 0xfc, 0x04, 0x0c, 0xf2, 0x16, 0x0a, 0x19, 0x06, 0xfc, 0x1d,
  0x07, 0xf2, 0x1b, 0xf0, 0x1b, 0xf1, 0xf2, 0x22, 0x0a, 0xfa, 0x16, 0xf8,
  0x1c, 0xf0, 0x04, 0x2a, 0xe3, 0xeb, 0xfd, 0x0d, 0x1a, 0xe7, 0xfc, 0x12,
  0xe4, 0x07, 0x08, 0xfd, 0x12, 0xe7, 0xe7, 0xfb, 0xd1, 0x07, 0xf0, 0x0b,
  0x0b, 0xf6, 0xfe, 0xe0, 0xcf, 0xf7, 0xe4, 0x04, 0xfb, 0x09, 0x16, 0xe9,
  0xd2, 0xe7, 0xe5, 0x1b, 0xb4, 0x0c, 0x05, 0xfa, 0xf4, 0xef, 0xcb, 0x1f,
  0x99, 0xf3, 0x03, 0xf0, 0xe7, 0x0e, 0xd5, 0x07, 0xc7, 0xe0, 0xf8, 0xf8,
  0xcc, 0x07, 0xf8, 0x1a, 0xd6, 0xef, 0xf7, 0x0a, 0xcb, 0xff, 0x08, 0x05,
  0xe7, 0x07, 0xf7, 0xe8, 0xe3, 0x13, 0x0a, 0x0f, 0xef, 0xf9, 0xf8, 0xf4,
  0xf7, 0xe7, 0x0b, 0xfc, 0xfe, 0x0e, 0xf7, 0x01, 0xfc, 0xeb, 0xfd, 0x08,
  0xf7, 0xf7, 0x02, 0x05, 0xfd, 0xf9, 0x1d, 0xf2, 0x18, 0xf5, 0xe8, 0x2e,
  0xf1, 0xe8, 0x27, 0x04, 0x21, 0xfa, 0xf3, 0x19, 0xd3, 0xfb, 0xf2, 0x00,
  0x00, 0xf7, 0xf7, 0x08, 0xc0, 0xf1, 0xc4, 0x0b, 0xd7, 0xef, 0xfa, 0xf5,
  0xb4, 0xe9, 0xb6, 0x13, 0xa4, 0xf5, 0xfe, 0xe0, 0xa7, 0xed, 0xb8, 0x08,
  0xa3, 0xf9, 0x0b, 0xe6, 0xc0, 0xed, 0xb6, 0x07, 0xa5, 0xee, 0x04, 0xd0,
  0xda, 0xd5, 0xb7, 0x02, 0xa1, 0xf3, 0xfd, 0xe8, 0xd6, 0xe5, 0xae, 0x20,
  0x9c, 0xe3, 0xf5, 0xee, 0xc8, 0x00, 0xc8, 0x10, 0x90, 0xe1, 0xfb, 0xe5,
  0xaf, 0xed, 0xb5, 0x1b, 0xa2, 0xf9, 0xfb, 0xfd, 0xbf, 0x00, 0xe6, 0x0b,
  0xaf, 0xee, 0xf3, 0x02, 0xdd, 0xfd, 0xf5, 0x14, 0xd2, 0xfa, 0xec, 0x11,
  0xf9, 0xf5, 0x0c, 0xfc, 0xf4, 0xe8, 0xed, 0x0a, 0x05, 0xf2, 0x19, 0xf9,
  0x08, 0xec, 0x02, 0x28, 0xf9, 0xf6, 0x13, 0x06, 0x06, 0xeb, 0xfa, 0x13,
  0xd3, 0xd9, 0xf8, 0x12, 0xd6, 0xe8, 0xeb, 0xf2, 0xd4, 0xd8, 0xb4, 0x1b,
  0xb8, 0xe4, 0xfd, 0xd7, 0xc6, 0xd5, 0x95, 0x19, 0x9b, 0xed, 0xec, 0xe3,
  0xa7, 0xea, 0xab, 0x21, 0xa1, 0xe8, 0xf3, 0xce, 0xc4, 0xdb, 0xb3, 0x07,
  0xbc, 0xf7, 0x00, 0xc1, 0xce, 0xef, 0xc1, 0x13, 0xd0, 0x06, 0xf8, 0xd3,
  0xdb, 0xe5, 0xc1, 0x05, 0xab, 0xf0, 0x0d, 0xd2, 0xe0, 0xee, 0xc6, 0x16,
  0xa7, 0xf1, 0x06, 0xe4, 0xca, 0xe6, 0xc1, 0x21, 0x86, 0xf8, 0xf0, 0xec,
  0xc9, 0xe3, 0xd2, 0x11, 0x9e, 0xd5, 0xd9, 0xfc, 0xde, 0xd9, 0xfb, 0x01,
  0xcf, 0xe4, 0xd9, 0xf9, 0xed, 0xf5, 0xfe, 0x04, 0xf1, 0xd2, 0xf8, 0x07,
  0xfe, 0xfc, 0x2c, 0xf5, 0x18, 0xeb, 0x03, 0x1c, 0xf9, 0xe7, 0x26, 0xf8,
  0x02, 0xe2, 0x01, 0x0e, 0xed, 0xdc, 0xef, 0xfe, 0xf4, 0xe0, 0xff, 0xf8,
  0xd2, 0xdb, 0xd4, 0x07, 0xbf, 0xde, 0xf0, 0xf3, 0xd0, 0xdc, 0xab, 0x0d,
  0xac, 0xdb, 0xe7, 0xd9, 0xbb, 0xee, 0xb8, 0x22, 0xce, 0xf7, 0xf0, 0xbe,
  0xc0, 0xe8, 0xe2, 0x1e, 0xce, 0x09, 0xf5, 0xca, 0xd5, 0xe1, 0xd6, 0x0e,
  0xe0, 0x1d, 0x11, 0xbd, 0xdb, 0xe4, 0xcf, 0x0a, 0xe5, 0x2f, 0x27, 0xc4,
  0xe9, 0xe1, 0xc9, 0x17, 0xd3, 0x13, 0x1f, 0xe5, 0xdc, 0xec, 0xe7, 0x1b,
  0xc6, 0xea, 0xfc, 0xde, 0xd8, 0xe9, 0xf9, 0x15, 0xc5, 0xce, 0xea, 0xe8,
  0xf2, 0xe3, 0xef, 0x0b, 0xd9, 0xdc, 0xe8, 0xf8, 0x03, 0xf7, 0x0d, 0x07,
  0xf7, 0xec, 0xee, 0x07, 0x14, 0x04, 0x36, 0x05, 0x0c, 0xdb, 0xf3, 0x16,
  0x12, 0xe8, 0x34, 0xfe, 0x14, 0xee, 0xf3, 0x02, 0x07, 0xed, 0xff, 0x07,
  0xfd, 0xea, 0xf4, 0xef, 0xf3, 0xd6, 0xde, 0x09, 0xe7, 0xde, 0xf3, 0xea,
  0xe1, 0xdb, 0xba, 0x1f, 0xdc, 0xdc, 0xe9, 0xdb, 0xd0, 0xdb, 0xdc, 0x18,
  0xed, 0xf5, 0xe7, 0xa5, 0xbc, 0xe9, 0xf1, 0xff, 0xdc, 0x27, 0x13, 0xae,
  0xd8, 0xec, 0xfe, 0x13, 0xe8, 0x37, 0x1e, 0xc6, 0xdd, 0xcf, 0xe1, 0x18,
  0xd5, 0x39, 0x28, 0xc6, 0xf2, 0xe2, 0xf6, 0x1e, 0xd6, 0x34, 0x31, 0xca,
  0xf9, 0xeb, 0x03, 0x07, 0xdf, 0x0d, 0x1c, 0xc9, 0xdb, 0xe5, 0x0e, 0x04,
  0xdc, 0xe5, 0xfc, 0xe1, 0x00, 0xec, 0x02, 0x00, 0xed, 0xd5, 0xea, 0xf8,
  0x07, 0xe9, 0x15, 0x09, 0x06, 0xda, 0xde, 0x03, 0x09, 0xec, 0x35, 0xea,
  0x2e, 0xe9, 0xfa, 0x1b, 0x0b, 0xef, 0x39, 0x03, 0x1e, 0xee, 0xed, 0xfe,
  0xf4, 0xf0, 0x19, 0x03, 0x02, 0xfa, 0xfd, 0xf0, 0xe5, 0xd3, 0xf7, 0xfa,
  0xe5, 0xea, 0xe8, 0xd9, 0xf1, 0xcc, 0xd6, 0x03, 0xe4, 0xe8, 0xf7, 0xc1,
  0xcb, 0xe0, 0xbf, 0x05, 0xd6, 0x0a, 0x0a, 0xa5, 0xbb, 0xd6, 0xd4, 0x0e,
  0xd1, 0x2b, 0x00, 0xb1, 0xda, 0xe6, 0xf4, 0x06, 0xdb, 0x42, 0x3e, 0xbd,
  0xee, 0xdd, 0xff, 0x1c, 0xe4, 0x57, 0x47, 0xa6, 0xf2, 0xda, 0x02, 0x05,
  0xe9, 0x1e, 0x2e, 0xad, 0xf9, 0xea, 0x04, 0x15, 0xe0, 0x0c, 0x1e, 0xbd,
  0xee, 0xf2, 0x19, 0xfd, 0xe7, 0xef, 0xfe, 0xc9, 0xfd, 0xfb, 0x1b, 0x06,
  0x11, 0xd7, 0xff, 0xec, 0xff, 0xf5, 0x16, 0xfb, 0x13, 0xed, 0xe1, 0x0d,
  0x07, 0x05, 0x1f, 0x06, 0x15, 0xe6, 0xeb, 0x11, 0x16, 0xf9, 0x20, 0xee,
  0x06, 0x0f, 0xf9, 0x05, 0xfe, 0xf0, 0x0c, 0x09, 0x01, 0xfc, 0xf9, 0xff,
  0xe3, 0xe7, 0xf5, 0x00, 0xfc, 0xea, 0xf3, 0xd5, 0xd7, 0xdf, 0xdf, 0xfe,
  0xdb, 0x04, 0x06, 0xc6, 0xda, 0xc4, 0xe0, 0x1a, 0xd0, 0x21, 0x16, 0xb3,
  0xca, 0xd5, 0xda, 0x09, 0xb5, 0x3b, 0x25, 0xb0, 0xdb, 0xc7, 0xf4, 0x19,
  0xc2, 0x3d, 0x26, 0x9e, 0xd5, 0xd1, 0xfa, 0x0d, 0xdd, 0x2e, 0x2e, 0x96,
  0xea, 0xcd, 0x06, 0x16, 0xd1, 0x1c, 0x34, 0xa9, 0xfb, 0xe3, 0x0a, 0x11,
  0xeb, 0x09, 0x1f, 0xad, 0xfa, 0xec, 0x28, 0x00, 0x12, 0x05, 0x0a, 0xde,
  0xfc, 0xee, 0x23, 0x03, 0x01, 0xf9, 0x08, 0xe6, 0x0c, 0xfe, 0x2d, 0xf3,
  0x14, 0xfd, 0xf9, 0xfe, 0x1d, 0xf9, 0x35, 0xf8, 0x1a, 0xff, 0x03, 0x1f,
  0x24, 0x02, 0x42, 0xef, 0x1f, 0x14, 0x14, 0x00, 0xef, 0xfc, 0x1e, 0x0a,
  0x00, 0x03, 0x05, 0xea, 0xef, 0xe8, 0x15, 0x0f, 0xf9, 0x05, 0xfe, 0xd9,
  0xe3, 0xdf, 0xda, 0x0b, 0xdf, 0x04, 0xf6, 0xb6, 0xd1, 0xce, 0xd9, 0x06,
  0xd8, 0x09, 0xfb, 0x9d, 0xd6, 0xca, 0xda, 0x19, 0xce, 0x0c, 0x1a, 0x91,
  0xd2, 0xd5, 0xe7, 0x17, 0xd6, 0x1a, 0x12, 0xa2, 0xcf, 0xc7, 0xe8, 0x14,
  0xc8, 0x24, 0x2d, 0xad, 0xdd, 0xdc, 0x03, 0x16, 0xe8, 0x09, 0x1f, 0x9a,
  0xdd, 0xd9, 0x0d, 0xf7, 0xee, 0xff, 0x08, 0xb6, 0xf4, 0xf2, 0x1c, 0x09,
  0x0c, 0x02, 0x19, 0xcc, 0x0b, 0xf4, 0x1c, 0x03, 0x00, 0xeb, 0x02, 0xf0,
  0x17, 0xec, 0x26, 0xf5, 0x1c, 0x07, 0x03, 0xfe, 0x2e, 0x09, 0x3f, 0xfb,
  0x2d, 0x0b, 0x04, 0x21, 0xec, 0x05, 0xf1, 0x1e, 0xef, 0xf3, 0xfc, 0x1d,
  0x00, 0x12, 0x01, 0x16, 0xf6, 0xea, 0xe6, 0x0c, 0x07, 0x21, 0x20, 0x10,
  0x02, 0x05, 0xfd, 0x03, 0x15, 0x1a, 0x23, 0x12, 0xdb, 0x1e, 0x10, 0x10,
  0x0d, 0x07, 0x25, 0x16, 0xc6, 0x0f, 0x1c, 0xfc, 0x1e, 0x02, 0x08, 0x22,
  0xbe, 0x14, 0x13, 0xe3, 0x08, 0xe2, 0x03, 0x21, 0xca, 0x16, 0xf4, 0xee,
  0xfd, 0xe2, 0x0b, 0x06, 0xdd, 0x00, 0xff, 0xd8, 0x19, 0xe6, 0x11, 0x08,
  0xe9, 0x0b, 0xf3, 0xf0, 0x26, 0xe1, 0x02, 0x12, 0x07, 0x13, 0x00, 0xf0,
  0x26, 0xf6, 0x05, 0xff, 0x11, 0x07, 0xfc, 0xf5, 0x20, 0xeb, 0xe8, 0x14,
  0xf0, 0xfb, 0x0d, 0xfc, 0x0a, 0xde, 0xd1, 0x08, 0xf1, 0xf6, 0x02, 0x0b,
  0xed, 0xef, 0xcf, 0x17, 0xe0, 0x07, 0x10, 0x04, 0xea, 0x01, 0xf9, 0x1d,
  0xfb, 0xef, 0xe7, 0x1a, 0xf7, 0x1a, 0x11, 0x1b, 0x05, 0x13, 0xf8, 0x21,
  0x11, 0x11, 0xfe, 0x08, 0x03, 0x10, 0x03, 0x14, 0x02, 0x02, 0x07, 0x06,
  0xc7, 0x12, 0x0a, 0x03, 0xfe, 0xe9, 0x16, 0x17, 0xc3, 0x17, 0xff, 0x05,
  0xf9, 0xe5, 0x0b, 0x1e, 0xdc, 0x0e, 0x03, 0x01, 0xf7, 0xda, 0x15, 0x03,
  0xdd, 0x05, 0xf0, 0xeb, 0xf3, 0xd6, 0x17, 0x11, 0xd7, 0x08, 0xf6, 0xf2,
  0x14, 0xd5, 0x01, 0xfe, 0xf4, 0xfb, 0xfb, 0xf6, 0x08, 0xd8, 0x10, 0xf9,
  0xf8, 0x0c, 0xf2, 0x03, 0x07, 0xfa, 0xee, 0x05, 0x07, 0x10, 0x06, 0xf1,
  0x19, 0xf1, 0xfc, 0x08, 0xf7, 0x19, 0x13, 0x01, 0xfa, 0xec, 0xe5, 0x04,
  0x07, 0xfe, 0x11, 0xf7, 0xe4, 0xf4, 0xce, 0x1b, 0xf0, 0x12, 0x05, 0xef,
  0xe8, 0xfc, 0xfb, 0x0e, 0xef, 0xec, 0xfa, 0x12, 0x11, 0x0b, 0xf3, 0x07,
  0x00, 0x08, 0xf8, 0x26, 0xf0, 0x01, 0x02, 0x21, 0xeb, 0x1a, 0x17, 0x0d,
  0xeb, 0xf8, 0xf0, 0x10, 0xca, 0x0a, 0x18, 0x05, 0xe3, 0xe7, 0xed, 0x1e,
  0xb8, 0x1d, 0x05, 0x1a, 0xdf, 0xda, 0xf0, 0x16, 0xb3, 0x13, 0x0d, 0x16,
  0xcb, 0xb4, 0x01, 0xfe, 0xbf, 0x0e, 0xf8, 0x15, 0xe8, 0xc1, 0xf1, 0xfd,
  0xbe, 0x0e, 0xf8, 0x18, 0xe5, 0xce, 0xf6, 0xfa, 0xe0, 0x0d, 0xf6, 0x2d,
  0xf8, 0xdb, 0xe6, 0x0d, 0xe8, 0x11, 0x13, 0x26, 0x09, 0xed, 0xed, 0xf8,
  0xdd, 0x1b, 0x06, 0x1c, 0x06, 0xe3, 0xe6, 0xf6, 0xf5, 0x0e, 0x11, 0xfe,
  0x06, 0xec, 0xe3, 0xfd, 0xfe, 0x05, 0x18, 0xef, 0xfc, 0xf4, 0xcf, 0x0a,
  0xf0, 0x05, 0x06, 0xef, 0xee, 0xf9, 0xe8, 0x12, 0xfb, 0x08, 0x0a, 0x11,
  0x04, 0xef, 0xed, 0x0d, 0xf0, 0x0f, 0x10, 0x0f, 0x02, 0xfb, 0xde, 0x16,
  0xd3, 0x0e, 0x18, 0x02, 0xd8, 0xe1, 0xd1, 0x21, 0xaf, 0x07, 0xff, 0x09,
  0xcb, 0xcc, 0xd7, 0x12, 0xac, 0x0d, 0x00, 0x1b, 0xc2, 0xdb, 0xca, 0x05,
  0xbd, 0x09, 0x0e, 0x19, 0xb5, 0xb4, 0xd4, 0x0d, 0xad, 0x09, 0x0b, 0x1a,
  0xcc, 0xc8, 0xd8, 0xff, 0xac, 0x23, 0x1b, 0x1f, 0xd7, 0xc5, 0xc8, 0x0f,
  0xab, 0x1a, 0x0e, 0x2d, 0xeb, 0xdb, 0xc9, 0x1d, 0xc3, 0x29, 0x26, 0x14,
  0xf2, 0xe9, 0xcd, 0x17, 0xbd, 0x0d, 0x14, 0x1e, 0xf9, 0xe0, 0xd6, 0x15,
  0xd5, 0x1b, 0x04, 0x03, 0xfc, 0xe6, 0xe0, 0x09, 0xe9, 0xfa, 0x0c, 0xf2,
  0xe9, 0xe5, 0xdb, 0x09, 0xf9, 0x01, 0xff, 0xed, 0xe8, 0x0b, 0xef, 0xfe,
  0xf8, 0x04, 0xfe, 0x0b, 0xf1, 0x03, 0xf9, 0x07, 0xf5, 0xfa, 0xfb, 0x0d,
  0xf2, 0xe7, 0xf7, 0xfb, 0xd8, 0x0b, 0xfc, 0x1e, 0xe8, 0xe0, 0xd4, 0x03,
  0xb2, 0xf4, 0xfb, 0x12, 0xd4, 0xc7, 0xc4, 0x17, 0xb3, 0x0c, 0x0f, 0x26,
  0xbe, 0xd1, 0xd7, 0x0f, 0xcd, 0x0d, 0xfa, 0x16, 0xb6, 0xaa, 0xe0, 0xf9,
  0xd7, 0xfe, 0xf7, 0x1f, 0xc8, 0xba, 0xd5, 0x09, 0xd5, 0x13, 0x03, 0x22,
  0xe6, 0xb6, 0xb7, 0x10, 0xbe, 0x13, 0x05, 0x17, 0xd8, 0xba, 0xa0, 0x1d,
  0xa0, 0x0a, 0x1b, 0x37, 0xd4, 0xdc, 0xb2, 0x04, 0xc9, 0x0a, 0x09, 0x32,
  0xef, 0xe8, 0xcd, 0x0b, 0xea, 0x13, 0xff, 0x18, 0xec, 0xf1, 0xd6, 0xfb,
  0xfb, 0x03, 0x0c, 0xf7, 0xe4, 0xda, 0xd7, 0x07, 0xf1, 0x0e, 0x0d, 0xf3,
  0xe4, 0x01, 0xdb, 0x0d, 0x09, 0x09, 0xf6, 0xfb, 0xf8, 0x01, 0xe5, 0x04,
  0xf8, 0x13, 0xf7, 0x0e, 0xf0, 0xf6, 0xfe, 0x0a, 0xe4, 0xfd, 0x0e, 0x17,
  0xe7, 0xd5, 0xe1, 0xf1, 0xdd, 0x09, 0xf2, 0x3f, 0xfb, 0xd1, 0xcd, 0xfe,
  0xd6, 0xfa, 0x0d, 0x4a, 0xdc, 0xdc, 0xf7, 0x07, 0xf2, 0xf2, 0xec, 0x1d,
  0xe4, 0xea, 0xec, 0xff, 0xea, 0x14, 0x02, 0x19, 0xf1, 0xd0, 0xee, 0xf7,
  0xda, 0x08, 0xfe, 0x14, 0x11, 0xd3, 0xc5, 0x05, 0xd5, 0xff, 0x07, 0x2c,
  0x07, 0xdd, 0xd1, 0x16, 0xce, 0x00, 0x0f, 0x29, 0xfd, 0xda, 0xcf, 0x00,
  0xd8, 0xf4, 0xf6, 0x32, 0xef, 0xe5, 0xea, 0xf5, 0xf8, 0xf9, 0xf4, 0x1a,
  0xf6, 0xe3, 0xee, 0xf0, 0x02, 0x15, 0x0f, 0xfe, 0xdf, 0xe0, 0xe4, 0xee,
  0xef, 0x1b, 0x1b, 0xf2, 0xe6, 0x0d, 0xed, 0x09, 0x01, 0x0f, 0x13, 0x02,
  0x06, 0x05, 0x03, 0x04, 0x0f, 0x16, 0x0a, 0x01, 0xfc, 0xf2, 0x01, 0xf3,
  0x11, 0x0d, 0x00, 0x2b, 0x05, 0xf2, 0xfc, 0xf6, 0xf6, 0x1e, 0x10, 0x1f,
  0x23, 0xeb, 0x1a, 0xf6, 0x03, 0x03, 0x01, 0x18, 0x0b, 0xf0, 0x36, 0xe3,
  0x25, 0xf5, 0xe5, 0x13, 0x01, 0x01, 0x4e, 0xea, 0x46, 0x01, 0xfd, 0x07,
  0xff, 0xdf, 0x31, 0xee, 0x2b, 0x12, 0x0d, 0x0b, 0x2d, 0xe6, 0x30, 0xfe,
  0x0f, 0x13, 0x0a, 0x13, 0x33, 0xde, 0x2f, 0xf0, 0x01, 0x02, 0xf8, 0x1a,
  0x19, 0xf0, 0x08, 0x01, 0x12, 0xff, 0xf9, 0x1b, 0xfa, 0xe3, 0xf9, 0xff,
  0xfd, 0x11, 0x14, 0x27, 0xfb, 0xe5, 0xe6, 0xff, 0x0c, 0x07, 0x13, 0x02,
  0xff, 0xf2, 0xd9, 0xf8, 0xf7, 0x06, 0x06, 0xed, 0xee, 0x1b, 0xe9, 0x03,
  0x04, 0x0d, 0x05, 0xec, 0x05, 0x09, 0xfc, 0xf7, 0x0e, 0x1d, 0xf9, 0x09,
  0x1e, 0xfc, 0x1d, 0xe6, 0x20, 0x0e, 0x14, 0x0e, 0x2f, 0x0c, 0x34, 0xe4,
  0x3d, 0x10, 0x0c, 0x19, 0x4d, 0x0f, 0x52, 0xee, 0x4c, 0x01, 0x0e, 0x08,
  0x27, 0x1a, 0x52, 0xf7, 0x55, 0xf5, 0xeb, 0xef, 0x12, 0x0c, 0x66, 0xdc,
  0x53, 0x0c, 0x00, 0xec, 0x1b, 0x15, 0x5e, 0xf4, 0x4f, 0x1b, 0x0a, 0xe9,
  0x33, 0x02, 0x5e, 0xe2, 0x59, 0x0b, 0x13, 0xe1, 0x3b, 0x1a, 0x71, 0xe7,
